#version: 0.2
t h
o s
a p
i n
ap os
& apos
&apos ;
y o
th e</w>
yo u</w>
t o</w>
i s</w>
a n
e r
e d</w>
a r
in g</w>
o u
a t</w>
e r</w>
r e
h e</w>
o n</w>
v e</w>
o n
m e</w>
e n
h a
o r
w h
a l
&apos; t</w>
n o
s t
i n</w>
l i
i t</w>
a n</w>
w a
o m</w>
o f</w>
l e
t i
th at</w>
e s</w>
er e</w>
i t
&apos; s</w>
e n</w>
o r</w>
e l
T om</w>
d i
b e
o o
a s
i l
r i
u s
d o</w>
ha ve</w>
k e</w>
a t
l d</w>
th is</w>
h o
ar e</w>
wa s</w>
a c
w e</w>
r o
n e
m y</w>
an d</w>
c o
l y</w>
yo u
f or</w>
r e</w>
th e
g h
s he</w>
no t</w>
d on</w>
a y</w>
v er
wh at</w>
i s
c an</w>
l e</w>
you r</w>
d o
ou t</w>
no w</w>
b e</w>
w an
t o
i c
l o
e t</w>
&apos; m</w>
gh t</w>
al l</w>
h i
u n
a b
ou ld</w>
c h
on e</w>
m e
s o
m a
s e
it h</w>
q u
s u
t r
w ith</w>
h is</w>
e a
e s
&apos; re</w>
wan t</w>
c h</w>
en t</w>
li ke</w>
h er</w>
th ing</w>
s p
b u
w or
th er</w>
k now</w>
the y</w>
c e</w>
th ere</w>
a g
il l</w>
g o
th in
i r
c a
ho w</w>
t er</w>
v er</w>
s i
t s</w>
re a
m or
ver y</w>
hi m</w>
us t</w>
o t
u r
a s</w>
s h
g o</w>
d ay</w>
p l
f r
d e
di d</w>
ha s</w>
el l</w>
s a
t a
k ing</w>
d n</w>
ap p
f or
l l</w>
g et</w>
e e
f a
s e</w>
d y</w>
ti me</w>
thin k</w>
oo d</w>
co m
t ed</w>
n o</w>
e x
ou n
ar y</w>
oo k</w>
o p
ti on</w>
&apos; ve</w>
qu ot
quot ;</w>
& quot;</w>
w ill</w>
ha d</w>
&apos; ll</w>
d s</w>
e ar
p ro
b o
i f</w>
c on
an y</w>
a l</w>
w ere</w>
ab out</w>
u p</w>
an g
h ere</w>
r a
in d</w>
wh o</w>
t er
t e
s o</w>
k s</w>
fr om</w>
f u
s t</w>
p le
at e</w>
d e</w>
al ly</w>
i d</w>
k ed</w>
y s</w>
di dn</w>
wh ere</w>
u s</w>
mor e</w>
bu t</w>
as t</w>
m o
j ust</w>
m an</w>
f f
wh y</w>
r y</w>
co me</w>
c i
b y</w>
t t
w ould</w>
l a
wh en</w>
M ary</w>
p e
p ar
h el
e st
so me
en d</w>
t al
g ood</w>
go ing</w>
ou r</w>
i ght</w>
h app
p re
g i
e ver
as e</w>
wa y</w>
on g</w>
a m</w>
m u
ne ed</w>
y thing</w>
t h</w>
t ell</w>
w i
se e</w>
g s</w>
t y</w>
er s</w>
a d
s el
sh ould</w>
&apos; d</w>
p o
ne ver</w>
be en</w>
to o</w>
os t</w>
a in</w>
w n</w>
m on
p er
g u
mu ch</w>
le t</w>
v ed</w>
a m
in e</w>
hel p</w>
th an</w>
ple ase</w>
le a
f ri
us e</w>
ri ght</w>
on ly</w>
ic e</w>
f e
c ould</w>
re ally</w>
m b
ar d</w>
os e</w>
o f
d er</w>
d er
c t</w>
wor k</w>
t w
t u
ac k</w>
@ -
@- @</w>
ta ke</w>
sel f</w>
re e</w>
f i
e y</w>
y ing</w>
ou ght</w>
ne w</w>
l u
i m
go t</w>
g h</w>
so me</w>
ou s</w>
f e</w>
v i
sp ea
p u
on s</w>
it e</w>
d ing</w>
d ed</w>
v ing</w>
oun d</w>
j o
ea r</w>
an ce</w>
ag e</w>
w r
s s</w>
st u
i r</w>
st a
l oo
t ter</w>
r u
h ou
oo l</w>
v es</w>
rea dy</w>
m is
lo ve</w>
v en</w>
n a
m ust</w>
c k</w>
t e</w>
l ast</w>
bo dy</w>
m ar
ca r</w>
some thing</w>
p a
ma ke</w>
g e
g a
tr u
t ing</w>
s ed</w>
o ther</w>
do es</w>
d re
c u
c l
li e
k es</w>
it y</w>
el y</w>
re n
fu l</w>
tr y</w>
s h</w>
w s</w>
ou gh</w>
n ing</w>
mon ey</w>
l ed</w>
gi ve</w>
es n</w>
do esn</w>
ch il
an t</w>
t en</w>
pe op
peop le</w>
lo t</w>
g re
en ce</w>
d r
be lie
s ch
ro w</w>
ri ed</w>
i on</w>
ab le</w>
w ent</w>
ho me</w>
a u
p os
m i
is h</w>
d u
us ed</w>
t ur
m s</w>
a d</w>
spea k</w>
s ay</w>
o l
l ook</w>
the m</w>
ro om</w>
mb er</w>
en ts</w>
c ar
an ything</w>
ac e</w>
to ld</w>
sa id</w>
rea d</w>
n ight</w>
n ed</w>
li tt
b le</w>
s le
litt le</w>
c e
to day</w>
st ill</w>
s in
n e</w>
lea ve</w>
f ind</w>
tal k</w>
sch ool</w>
s ho
m any</w>
fri end</w>
for e</w>
es t</w>
c ou
be ca
b ack</w>
a f
tw o</w>
s or
s m
g ir
f ir
be fore</w>
b i
wa ys</w>
w ell</w>
l ong</w>
l ate</w>
k no
a tion</w>
te ac
st ar
s en
pl a
p ri
of f</w>
n g
al ways</w>
un der
th ought</w>
su re</w>
st o
o ld</w>
hou se</w>
fa ther</w>
ever ything</w>
ee l</w>
b ro
at ed</w>
w on</w>
w e
t en
st or
ear s</w>
e at</w>
b ook</w>
yo ne</w>
r ed</w>
ma de</w>
le ar
f in
belie ve</w>
w ee
p i
no thing</w>
m ent</w>
li fe</w>
l dn</w>
ic h</w>
happ y</w>
g e</w>
f t</w>
di ff
an d
E ng
v is
s on</w>
ren ch</w>
pro b
l s</w>
l ing</w>
k ee
il y</w>
under st
li ve</w>
f eel</w>
ag ain</w>
F rench</w>
sle e
p h
is n</w>
in to</w>
es s</w>
e as
c t
c oun
wi th
wh ich</w>
wan ted</w>
m in
m ay</w>
li sh</w>
b us
wa t
u l
p or
m ost</w>
fir st</w>
d ent</w>
b r
an y
am i</w>
al one</w>
the se</w>
t ook</w>
st r
pu t</w>
in ter
en ed</w>
do g</w>
di s
be tter</w>
b l
a way</w>
S ami</w>
Eng lish</w>
to mor
tomor row</w>
su r
le s</w>
i c</w>
h ard</w>
b or
al ready</w>
the ir</w>
se e
lo w
jo b</w>
bu y</w>
with out</w>
th ree</w>
h ur
h ed</w>
en ough</w>
c re
beca use</w>
r s</w>
qu est
h ear
d one</w>
as s</w>
w in
tu re</w>
m m
m ind</w>
m at
e ver</w>
ti ve</w>
le ft</w>
dre n</w>
do wn</w>
c or
af ter</w>
a r</w>
ti m
se en</w>
p e</w>
o ver</w>
kee p</w>
k e
h ea
g r
chil dren</w>
be st</w>
as ked</w>
an s
thin gs</w>
sor ry</w>
s er
na me</w>
k en</w>
i de
g er</w>
dr in
do or</w>
ch ang
c r
c es</w>
c al
z e</w>
sto p</w>
ide a</w>
e very</w>
d a
ang u
y ears</w>
w al
teac her</w>
t ri
t ly</w>
sa w</w>
prob le
me mber</w>
m p
loo king</w>
l angu
it ed</w>
il e</w>
b rea
b oo
al i
ac h</w>
J ap
wa ter</w>
p ic
of ten</w>
it s</w>
do ing</w>
ca me</w>
c an
bus y</w>
be ing</w>
w o
w er</w>
underst and</w>
tim es</w>
pl ay</w>
g en
fr a
fa m
ever y
en ds</w>
e ven</w>
c ho
an s</w>
y ed</w>
pl ace</w>
p t</w>
mo ther</w>
m er
l ost</w>
gre at</w>
fra id</w>
est er
d es
as k</w>
a fraid</w>
y ester
yester day</w>
y es</w>
x t</w>
wor ld</w>
wan ts</w>
w ar
su p
st er</w>
s n</w>
re member</w>
pre s
o ff
ne xt</w>
it ing</w>
c ed</w>
c all</w>
wee k</w>
v en
tr a
s wi
s ing</w>
p r
p ing</w>
k new</w>
j e
f ound</w>
ct or</w>
co ld</w>
c k
b ad</w>
an k</w>
C h
ti ons</w>
s es</w>
m an
ever yone</w>
es e</w>
at ing</w>
si de</w>
me et</w>
m y
i ons</w>
e l</w>
com p
c ted</w>
wr ong</w>
wor d</w>
tur n</w>
tru th</w>
slee p</w>
p ed</w>
n u
mar ried</w>
m ine</w>
lo w</w>
in gs</w>
fe w</w>
f ast</w>
eas y</w>
ear ly</w>
com ing</w>
be g
b ot
b ed</w>
ar ri
you n
youn g</w>
y et</w>
th ose</w>
stor y</w>
st ay</w>
sm all</w>
s k
n er</w>
m us
le tter</w>
le ss</w>
l ar
kno ws</w>
h ear</w>
fa r</w>
en ti
drin k</w>
do ctor</w>
d ri
com m
boo ks</w>
ar ound</w>
an other</w>
ac t</w>
y ear</w>
u re</w>
tal king</w>
s mo
s ic
po li
p ay</w>
n i
k ind</w>
inter est
ic ul
h e
ff e
every body</w>
diff icul
d ea
c le</w>
c en
c are</w>
ar en</w>
ad v
you r
tur ned</w>
tru e</w>
t on</w>
t el
sin ce</w>
si ble</w>
s how</w>
re sp
pro mis
par ty</w>
par ents</w>
ou ldn</w>
my self</w>
mor ning</w>
is t</w>
il led</w>
ha ving</w>
h un
h ar
c er
c c
c at
be au
wat ch</w>
w on
tt ing</w>
ti red</w>
ter s</w>
ra in</w>
on ce</w>
n ice</w>
lear n</w>
in v
ho pe</w>
happ ened</w>
happ en</w>
h u
ch e
c lo
any more</w>
wh ile</w>
ti on
t re
stu d
proble m</w>
li ves</w>
li st
hi m
g l
fe el
fam ily</w>
f o
da ys</w>
d in
coun try</w>
cou ldn</w>
your self</w>
w ea
ta in</w>
su ch</w>
sa me</w>
s hi
ro w
per son</w>
pa in
ne e
me di
loo ks</w>
li kes</w>
is e</w>
i l</w>
i g
him self</w>
h an
gir l</w>
ga ve</w>
f ree</w>
co l
c ra
b it</w>
at h</w>
wr ite</w>
wa it</w>
tr ain</w>
to ge
toge ther</w>
t un
sp o
s ha
ph one</w>
mis s</w>
ma kes</w>
m en</w>
langu age</w>
is hed</w>
ha ven</w>
fri ends</w>
f ol
e ting</w>
e ful</w>
de ci
com ple
ch ing</w>
c at</w>
beau ti
w ard</w>
u p
t ou
star ted</w>
some one</w>
so l
pl an</w>
o b
no body</w>
mi sta
m ight</w>
m et</w>
ge tting</w>
g g
fa v
d d
chil d</w>
cal led</w>
c ri
bi g</w>
b ought</w>
ag es</w>
wo man</w>
win do
wa sn</w>
un ti
unti l</w>
th r
stu dy</w>
see ms</w>
rea ding</w>
p s</w>
p en
li ght</w>
l at
in ed</w>
ha ir</w>
h er
fu n</w>
dre ss</w>
difficul t</w>
diff er
can not</w>
bro ther</w>
beauti ful</w>
b ir
an yone</w>
ac ci
F r
&apos ;</w>
wor king</w>
wa iting</w>
v o
ur ed</w>
un der</w>
th ers</w>
t on
sur pri
sic k</w>
ou s
os s</w>
ne ss</w>
mm er</w>
me eting</w>
mat ter</w>
m il
l on
in t</w>
hou rs</w>
ho t</w>
hear d</w>
he al
ha l
g la
g ar
ex pe
er ed</w>
e ach</w>
din ner</w>
d ang
bo y</w>
b all</w>
at o
G er
z y</w>
tr ying</w>
si ster</w>
ri ch</w>
re s</w>
quest ions</w>
quest ion</w>
pl an
os ton</w>
op en</w>
m ed</w>
k i
il l
ha te</w>
h and</w>
gir ls</w>
fin ished</w>
ffe e</w>
f ood</w>
f ish</w>
f el
es s
e yes</w>
di ed</w>
cor re
co ffee</w>
chang e</w>
c le
acci dent</w>
B oston</w>
wi fe</w>
tt y</w>
th ir
t ried</w>
t able</w>
st s</w>
so on</w>
se cre
s et</w>
pre tty</w>
pos sible</w>
p as
p an
or s</w>
off ice</w>
o wn</w>
nu mber</w>
mo vi
li ving</w>
li ved</w>
k is
it al</w>
in s</w>
i ous</w>
hear t</w>
hea d</w>
gla d</w>
for get</w>
fi ve</w>
el se</w>
e le
d ly</w>
d au
dau gh
cu t</w>
cou r
ch ar
c tion</w>
bu s</w>
bot h</w>
at ely</w>
ap er</w>
an ese</w>
al most</w>
ab ly</w>
Jap anese</w>
Jap an</w>
wr it
wea ther</w>
w ish</w>
v el</w>
tr ou
thin king</w>
t es</w>
t ely</w>
t ant</w>
st e
sen se</w>
s al
por tant</w>
ple as
ou t
ou r
mm ing</w>
min u
mil k</w>
la u
l er</w>
l a</w>
kno wn</w>
j u
im portant</w>
i gh
hur t</w>
fo re
fel t</w>
ex per
ex c
di st
con si
comp any</w>
bor n</w>
be h
ans wer</w>
ag a
adv ice</w>
T V</w>
I n
Fr ance</w>
wal k</w>
w ha
vis it</w>
us u
tr ans
thr ough</w>
th en</w>
t ro
swi mming</w>
st ed</w>
si on</w>
s ci
re f
re ci
promis e</w>
or y</w>
or t</w>
ne c
ma g
la r</w>
fu ture</w>
f ell</w>
e en</w>
d ar
cl os
cl ass</w>
car eful</w>
bu r
brea k</w>
bl ack</w>
beh ind</w>
be come</w>
b a
arri ved</w>
ang ry</w>
ag o</w>
D an</w>
A mer
z ed</w>
wor ry</w>
wor ks</w>
wor ds</w>
won der</w>
wh o
who le</w>
w ouldn</w>
w ine</w>
un i
un ch</w>
u ght</w>
tw een</w>
tri p</w>
ton ight</w>
ti c
surpri sed</w>
stud ents</w>
stor e</w>
ro ad</w>
re as
r un
r ing</w>
qu ite</w>
por t</w>
pa ti
p ped</w>
p op
p ho
op in
o thers</w>
ne ws</w>
n y</w>
n or
l and</w>
k illed</w>
k ey</w>
k et</w>
interest ed</w>
in st</w>
ic y
i es</w>
hi gh</w>
h on
h and
gu ess</w>
ga me</w>
f low
f ace</w>
exper i
ex ac
exac tly</w>
en jo
en ing</w>
deci ded</w>
com es</w>
c lea
c ked</w>
c ity</w>
c ap
bu il
be tween</w>
b icy
app o
aga inst</w>
ac c
you rs</w>
y e</w>
windo w</w>
wat ching</w>
us h</w>
to wn</w>
ti es</w>
ti c</w>
su cc
su b
str ang
sta tion</w>
smo king</w>
si ve</w>
s y
s ent</w>
ru n</w>
resp on
re s
pos ed</w>
o ver
nec ess
lon ger</w>
lau gh
je ct</w>
ir s</w>
il ed</w>
ic k
i an</w>
hur ry</w>
han ds</w>
gr and
fav or
f oo
e w</w>
e f
e b
de ath</w>
daugh ter</w>
d en
clea r</w>
ck y</w>
ca l</w>
c y</w>
c ost</w>
beca me</w>
at es</w>
appo in
al s</w>
0 0</w>
y be</w>
w er
v el
to p</w>
th y</w>
th ank</w>
tel ling</w>
te le
swi m</w>
su mmer</w>
stu dent</w>
star t</w>
st an
sp end</w>
some times</w>
sin g
sho t</w>
shi r
s it
ri st
re l
po or</w>
p ast</w>
p ain</w>
os p
or der</w>
opin ion</w>
o d</w>
no on</w>
mus ic</w>
ma ybe</w>
ma s</w>
ma l</w>
ma king</w>
lu cky</w>
loo ked</w>
li es</w>
li c</w>
lar ge</w>
langu ages</w>
l friend</w>
il s</w>
heal th</w>
gir lfriend</w>
g y</w>
fi re</w>
fi ed</w>
f l
eb a</w>
e ven
e at
dar k</w>
cra zy</w>
corre ct</w>
com pu
cl ose</w>
ch ed</w>
ch ance</w>
bicy cle</w>
be er</w>
b ab
ato eba</w>
at t
as ses</w>
app reci
any body</w>
ag ree</w>
T atoeba</w>
writ ten</w>
un k</w>
thin ks</w>
ter ri
te l</w>
su l
st ru
slee ping</w>
shir t</w>
sa ying</w>
re ali
ra ther</w>
qu i
prob ably</w>
pre f
pop u
pla ying</w>
pi an
par t</w>
p un
p le</w>
ous ly</w>
osp ital</w>
o lo
ne ar</w>
n er
movi e</w>
m en
low ed</w>
list en</w>
lea ving</w>
lat er</w>
l unch</w>
l ose</w>
in ing</w>
in for
i ther</w>
hun g
hung ry</w>
ho tel</w>
hea v
hal f</w>
h ospital</w>
h ing</w>
ga r</w>
for tun
favor ite</w>
f our</w>
f ine</w>
eas ily</w>
e ct</w>
der ed</w>
d ro
d rea
clo th
ce i
cat s</w>
ca ught</w>
ca ke</w>
c tive</w>
c oo
bab y</w>
b ar
b and</w>
ar t</w>
al so</w>
ad vis
a y
P ar
E ar
Ch rist
Amer ic
A u
wh ose</w>
wa sh</w>
wa ke</w>
ur ant</w>
uni ver
trou ble</w>
ter noon</w>
ta king</w>
t ea
tea m</w>
su gar</w>
sta yed</w>
sta urant</w>
st ing</w>
spea king</w>
sp e
si x</w>
se con
sa fe</w>
s li
re staurant</w>
re si
proble ms</w>
pro f
po int</w>
op ened</w>
n at
mon th</w>
mista ke</w>
minu tes</w>
ma tion</w>
lu tion</w>
li g
lear ned</w>
le s
le ast</w>
ke pt</w>
k in
k fast</w>
it ted</w>
in ess</w>
in e
im medi
ha sn</w>
h at</w>
for got</w>
feel ing</w>
f lo
f al
experi ence</w>
ex pen
en s</w>
differ ent</w>
d ou
d ance</w>
con f
con cer
compu ter</w>
comple tely</w>
co at</w>
cloth es</w>
clo ck</w>
ck et</w>
cho ice</w>
c ur
c ent</w>
brea kfast</w>
bo ys</w>
appreci ate</w>
U n
M r</w>
Ger man</w>
G od</w>
wo men</w>
wha te
whate ver</w>
w ro
wro te</w>
w ear</w>
v ir
v e
v ac
us ing</w>
u ro
u m</w>
u ation</w>
tu ally</w>
tou ch</w>
ti s
th s</w>
th day</w>
ten tion</w>
t ence</w>
stu p
stup id</w>
str ong</w>
st op
sp ee
smo ke</w>
sle pt</w>
sit uation</w>
sh ouldn</w>
sen tence</w>
secre t</w>
s mar
s il
rea l</w>
re e
pres ent</w>
pref er</w>
poli ce</w>
pl ain</w>
pic ture</w>
pian o</w>
pan ish</w>
p aper</w>
oun ds</w>
on er</w>
o k
nee ded</w>
necess ary</w>
mar ry</w>
m p</w>
m oun
li ked</w>
le gs</w>
ke ys</w>
ir ed</w>
inv ited</w>
infor mation</w>
in side</w>
i a</w>
h our</w>
go tt
gl asses</w>
gen er
g one</w>
flow ers</w>
flo or</w>
f lu
en g
ear ing</w>
e ither</w>
e g
dri ve</w>
do l
di re
di c
dea l</w>
dea d</w>
dang er
d ra
d ge</w>
cle an</w>
chang ed</w>
c ts</w>
c ook</w>
c lu
c is
c ase</w>
bro ke</w>
bo x</w>
bir thday</w>
beg an</w>
b ri
ar ti
an i
af ternoon</w>
ad m
ac ked</w>
ac k
S panish</w>
M on
J o
Ear th</w>
Ch in
A n
A l
wh e
whe ther</w>
wer en</w>
wal ked</w>
w in</w>
w el
w earing</w>
vi de
us band</w>
un ny</w>
ten n
tenn is</w>
ten ces</w>
tal ked</w>
ta l</w>
ta kes</w>
ta ken</w>
sup posed</w>
sup p
su n</w>
str ali
st y</w>
spo ke</w>
sho es</w>
sen tences</w>
see m</w>
se a</w>
sci enti
s qu
s it</w>
run ning</w>
ri ver</w>
re st</w>
pro du
pi e
ou d</w>
os ts</w>
on ed</w>
nee ds</w>
mi li
man ag
m ing</w>
m a</w>
low ing</w>
lo ved</w>
li ty</w>
li e</w>
li br
lear ning</w>
l ine</w>
l in
ki ds</w>
k ill</w>
interest ing</w>
immedi ately</w>
ic al</w>
heav y</w>
h usband</w>
h or
h it</w>
gl ass</w>
gi ven</w>
g ed</w>
fr u
for ward</w>
feel ings</w>
f act</w>
expen sive</w>
even ing</w>
enjo y</w>
en ty</w>
en ces</w>
eat en</w>
e ating</w>
danger ous</w>
d es</w>
cu te</w>
cat ch</w>
c ks</w>
c ated</w>
br ing</w>
bot t
b as
ac ti
ac ce
Par is</w>
E uro
Au strali
2 0
. .</w>
wr iting</w>
wor ked</w>
won der
vis ion</w>
v ous</w>
v ic
v al
ur al</w>
u mb
umb rel
tu res</w>
tion al</w>
the ory</w>
th re
teac h</w>
t ree</w>
t ex
t ears</w>
stud ying</w>
strang e</w>
star s</w>
sta irs</w>
st e</w>
spea ks</w>
smar t</w>
sha ll</w>
sh ort</w>
see ing</w>
secon d</w>
se ver
s us
s sed</w>
s ound</w>
s ou
s now</w>
s ity</w>
s end</w>
s car
ri de</w>
reas on</w>
reali ze</w>
re co
re cei
r as
qu ick
quick ly</w>
pu b
pub lic</w>
pla ys</w>
pla yed</w>
pla y
per fe
par k</w>
p en</w>
out side</w>
olo gi
ne igh
moun tain</w>
mo ment</w>
libr ary</w>
le e
l os
ke ts</w>
k ni
k er</w>
jo in</w>
it ch
is m</w>
ir re
inv ol
ig nor
ic i
hi story</w>
hi gh
h ood</w>
gu ys</w>
gu n</w>
gre at
go es</w>
gh ts</w>
ge ts</w>
g ra
g oo
g er
fru it</w>
fin ish</w>
fam ous</w>
ex ist</w>
ex am
e ye</w>
e vi
e mb
e f</w>
dr unk</w>
di e</w>
des er
d ate</w>
cr ying</w>
cou ple</w>
com for
clos ed</w>
che ck</w>
buil ding</w>
bu t
bro ken</w>
beg in
be t</w>
b ill</w>
ay la</w>
at tention</w>
appoin ted</w>
an ced</w>
ad dress</w>
ac r
S un
O h</w>
M ar
L ayla</w>
Jo h
Christ mas</w>
. ..</w>
z z
win ter</w>
wee k
week end</w>
wa sh
w il
w ed</w>
vi ew</w>
v ill
vill age</w>
v a
usu ally</w>
usu al</w>
us hed</w>
underst ood</w>
un cle</w>
umbrel la</w>
u t</w>
u e</w>
tra vel
tra ff
traff ic</w>
tion ary</w>
ti cket</w>
th er
tele vision</w>
tel lig
ta x
t y
t ment</w>
t est</w>
t ar
sur vi
st and</w>
sp ring</w>
some where</w>
sol ve</w>
so oner</w>
sing le</w>
si ght</w>
si g
sho p</w>
sa tis
s s
s on
row ing</w>
resp ect</w>
re pa
ra is
r an</w>
r an
qui et</w>
pro ve</w>
pri ce</w>
pr in
popu lar</w>
pleas ed</w>
pati ent</w>
par ed</w>
p ost</w>
or ity</w>
on t</w>
on es</w>
ol der</w>
o we</w>
ner vous</w>
ne t</w>
n one</w>
n ers</w>
me an</w>
mar ket</w>
m ents</w>
lar s</w>
kis s</w>
k o</w>
in tellig
in j
in ation</w>
im pres
il ing</w>
i st
ho ld</w>
her self</w>
gu e</w>
gott en</w>
gi ves</w>
g ured</w>
g es</w>
g am
fu ll</w>
fu l
fu ck</w>
fr ont</w>
fi gured</w>
fa ul
f at</w>
expe ct</w>
exc use</w>
en e
emb ar
ef for
ear th</w>
e du
dri ving</w>
dol lars</w>
dis co
dic tionary</w>
de ter
de ta
d ness</w>
d enti
d en</w>
d ding</w>
consi der</w>
con tr
comple te</w>
com pla
car ry</w>
c up</w>
c tu
c ru
c li
c ha
bl ood</w>
bi ke</w>
ba g</w>
ar e
app le</w>
ap ologi
an e</w>
al ity</w>
al e</w>
advis ed</w>
ac tually</w>
ab road</w>
a vo
a th
a ir</w>
Joh n</w>
I tal
1 9
1 0</w>
&apos; clock</w>
y o</w>
wor th</w>
wor se</w>
vide o</w>
ver n
vern ment</w>
vac ation</w>
v ol
us es</w>
ur ing</w>
tw ice</w>
tro du
tra vel</w>
thir ty</w>
the at
th an
terri ble</w>
te mp
t ters</w>
t in
su it</w>
st ri
spo ken</w>
spee ch</w>
sp ort</w>
sp or
sp ace</w>
so lu
so f
si bi
sh ar
ser ious</w>
se at</w>
se ar
satis fied</w>
s we
s ong</w>
s low</w>
ru de</w>
ro ck</w>
ri s
re turn</w>
re sul
ra di
pun ctu
pro te
pro pos
pre pared</w>
pos t
po e
pie ce</w>
pho to</w>
p ool</w>
p lo
p er</w>
ou rs</w>
op er
on d</w>
ok yo</w>
ob je
o w
n s</w>
mo ved</w>
mo ve</w>
mista kes</w>
mis sed</w>
medi c
me mor
ma ga
maga z
lu ck</w>
les son</w>
lee p</w>
k itch
kitch en</w>
invol ved</w>
in trodu
in cre
ic k</w>
i ously</w>
i mag
i di
idi o
hu man</w>
ho me
har dly</w>
ha med</w>
h y
gu y</w>
go vernment</w>
gen i
g ni
ful ly</w>
fri en
fol low</w>
fin ally</w>
f ur
f all</w>
f ac
expe cted</w>
embar ras
eg gs</w>
e ffe
do gs</w>
dis appointed</w>
deter min
de li
de cis
dang er</w>
d uring</w>
d om</w>
d ence</w>
d ad</w>
cu l
ct ly</w>
cr os
cour se</w>
coun t</w>
coo king</w>
consi dered</w>
con tri
comfor table</w>
col le
ci ous</w>
ci al</w>
car s</w>
c ry</w>
c rea
c ard</w>
bus iness</w>
bo y
b read</w>
b lu
as leep</w>
as hamed</w>
app ed</w>
an im
al lowed</w>
acr oss</w>
acc used</w>
ac cor
ab sent</w>
ab o
a w
Un ited</w>
T okyo</w>
Sun day</w>
R e
O K</w>
Mon day</w>
In ter
Chin ese</w>
C o
Australi a</w>
Americ a</w>
3 0</w>
wor e</w>
windo ws</w>
wh ite</w>
we ight</w>
war ned</w>
w sp
wsp aper</w>
w ise</w>
w ing</w>
vis ited</w>
ve ge
v in
v al</w>
up stairs</w>
underst an
un fortun
unfortun ately</w>
tr ust</w>
ti ci
ti cal</w>
thir sty</w>
than ks</w>
th qu
thqu a
th ous
ter ed</w>
ten ded</w>
te en</w>
te a</w>
t or
t ee
tee th</w>
t ask</w>
t all</w>
sy m
supp ose</w>
succ ess</w>
succ ee
succee ded</w>
su ff
su dd
st re
st ea
squ irre
sp ent</w>
sor t</w>
sol di
sk y</w>
sil ent</w>
sig n</w>
sibi lity</w>
si st
sho wer</w>
shi p</w>
sh y</w>
sh ut</w>
ser iously</w>
scar ed</w>
s ounds</w>
s is</w>
s cen
s and
sand w
ru m
ro g
ri day</w>
respon sible</w>
reco gni
recei ved</w>
re qu
re port</w>
re ma
re ach</w>
rais ed</w>
ra ining</w>
r ab
qu it</w>
pre si
pr acti
pl enty</w>
pas sed</w>
pain ting</w>
pain ted</w>
pa id</w>
p y</w>
p ot
p ly</w>
p ends</w>
p at
p ass</w>
or ang
o cc
no vel</w>
ne wspaper</w>
ne ar
nat ural</w>
n a</w>
mus e
mili ar</w>
medic ine</w>
me ss
me ans</w>
m os
m n</w>
m el
lo ves</w>
list ening</w>
li k
lik ely</w>
li cen
le tters</w>
le n</w>
le g
laugh ing</w>
la w</w>
la tions</w>
la tion</w>
l oss</w>
l en
is su
is hing</w>
intellig ent</w>
inj ured</w>
il ls</w>
i re</w>
hur ried</w>
hel ped</w>
hel d</w>
gu re</w>
great est</w>
gre s
gar den</w>
g row</w>
for m</w>
for give</w>
fol lowing</w>
fi x</w>
fi gure</w>
fe et</w>
fa miliar</w>
f unny</w>
f ishing</w>
f illed</w>
ex plain</w>
es cap
er gy</w>
er c
ene my</w>
en tly</w>
en ergy</w>
en ded</w>
effor ts</w>
ear thqua
e v
e ty</w>
e qu
e mp
e ment</w>
dre ssed</w>
dou b
differ ence</w>
di sp
deta ils</w>
decis ion</w>
de pends</w>
dd le</w>
d el
d a</w>
cu sto
cour age</w>
con di
comm un
comm on</w>
cho ose</w>
char ge</w>
ch ur
ch es</w>
c ting</w>
c osts</w>
c ir
bu tt
bro wn</w>
br ought</w>
boy friend</w>
bott le</w>
blu e</w>
begin ning</w>
be ach</w>
b ly</w>
b la
b en
b el
avo id</w>
au th
as h</w>
are a</w>
ar rog
app ear
ap s</w>
anim als</w>
an ts</w>
an t
al ong</w>
ag re
accor ding</w>
ac he</w>
ab solu
a wake</w>
a tions</w>
a k
S t
N ew</w>
J u
J ane</w>
F riday</w>
A h</w>
z o
y sic
y er</w>
wor st</w>
wor ried</w>
wonder ful</w>
wee ks</w>
we dding</w>
wat ched</w>
war m</w>
wa ste</w>
wa r</w>
w yer</w>
vol un
vo lution</w>
vi ol
ver ed</w>
up set</w>
univer sity</w>
univer se</w>
understan ding</w>
u g
trou b
tro l</w>
tri es</w>
tre es</w>
tre ated</w>
trans late</w>
tou ched</w>
to ys</w>
to i
tic s</w>
thre w</w>
theat er</w>
tele phone</w>
tax i</w>
tal ler</w>
tal ks</w>
t ab
sus pe
su gg
stre et</w>
stop ped</w>
ste m</w>
star ting</w>
st at
sou l</w>
so ld</w>
sk i
sin gs</w>
sin ger</w>
si ze</w>
sh ou
sh or
sh ee
shee p</w>
sever al</w>
ser ved</w>
sel ves</w>
se par
se as
scen e</w>
sa ys</w>
s un
s la
s ite</w>
s ell</w>
run s</w>
ru les</w>
ro b
res our
ren t</w>
ref used</w>
reas ons</w>
re ly</w>
re li
re la
ran g</w>
radi o</w>
ra z
r or</w>
r oo
punctu al</w>
prote ct</w>
promis es</w>
pro per
pro ject</w>
pri ces</w>
po wer</w>
po is
plan et</w>
pic tures</w>
pho to
ph ysic
perfe ct</w>
per h
perh aps</w>
p ping</w>
p es</w>
p ale</w>
ou p</w>
or k</w>
or i
o c
neigh bor
na tive</w>
na tional</w>
n on
muse um</w>
movi es</w>
mon y</w>
mon ths</w>
mo on</w>
mis sion</w>
minu te</w>
mi re</w>
mess age</w>
memor y</w>
me ant</w>
mat ters</w>
manag er</w>
ma j
ma il</w>
m ot
m om</w>
m b</w>
m ac
lo ws</w>
lo ts</w>
lo cked</w>
licen se</w>
li st</w>
lea ves</w>
le g</w>
le br
laugh ed</w>
la zy</w>
la wyer</w>
la ke</w>
l end</w>
kni fe</w>
kis sed</w>
kin ds</w>
kee ps</w>
k ers</w>
ir ac
incre as
in stru
in no
in es</w>
impres sed</w>
im possible</w>
idio t</w>
ic ken</w>
i ze</w>
i er</w>
i de</w>
hun dr
hundr ed</w>
hon est</w>
home work</w>
hi de</w>
heal thy</w>
happ ening</w>
hand le</w>
ha u
grand mother</w>
grand father</w>
gr ound</w>
gr at
gam es</w>
g rowing</w>
fortun e</w>
fore ig
for ced</w>
foo ds</w>
fi c</w>
fa ster</w>
fa iled</w>
f ly</w>
f il
f ight</w>
f ic
f ear</w>
ex hau
ex erc
exerc ise</w>
embarras sed</w>
el ls</w>
e ight</w>
e con
drin king</w>
dri ver</w>
drea m</w>
dr ank</w>
dou ble</w>
dist ance</w>
di sh
der ing</w>
de st
de fe
de e
d hood</w>
coun tries</w>
con vin
con grat
comp li
co ws</w>
cl as
chur ch</w>
chil dhood</w>
ch icken</w>
cer tain</w>
ce lebr
ce ed</w>
can c
ca use</w>
ca tion</w>
ca mer
c row
c king</w>
c hi
c ess</w>
bur st</w>
bor row</w>
bo ther</w>
bo at</w>
be d
b s</w>
b right</w>
b al
b ack
at s</w>
as su
as hed</w>
arri ve</w>
ar re
ar m</w>
ar gu
apologi ze</w>
ani mal</w>
ali ve</w>
al ter
agre ed</w>
ag gres
adm itted</w>
ad ver
ad mire</w>
acce pt</w>
ac ted</w>
abo ve</w>
a ver
a ma
a ir
a de</w>
Y ork</w>
St ates</w>
S pain</w>
S m
R us
Inter net</w>
Ger many</w>
Eng land</w>
Americ ans</w>
zo o</w>
z ing</w>
with in</w>
wil ling</w>
wel come</w>
we ir
wal ks</w>
wa ited</w>
w n
w it
w ears</w>
volun te
vir on
v ot
v able</w>
us eful</w>
ur y</w>
up on</w>
u ne
tun ity</w>
tu mn</w>
tru ck</w>
travel ing</w>
toi let</w>
ti z
ti sh</w>
ti e</w>
th row</w>
th ough</w>
terri bly</w>
tel ls</w>
teac hing</w>
teac h
te m
tab les</w>
t ory</w>
t ent</w>
t end</w>
t ary</w>
sy stem</w>
suspe ct</w>
sup port</w>
sup por
sub ject</w>
su per
su it
su c
suc ceed</w>
stor ies</w>
stop ping</w>
stan ding</w>
sta r</w>
st ic</w>
st er
st ate</w>
squirre ls</w>
spor ts</w>
sp er
sper an
speran to</w>
some body</w>
soldi ers</w>
so ci
so cc
socc er</w>
sm ile</w>
sm ells</w>
sm al
smal ler</w>
slee py</w>
sk ir
sk in</w>
sing ing</w>
si ons</w>
si an</w>
sh ed</w>
sh are</w>
ser ve</w>
sel ling</w>
secre ts</w>
se ven</w>
scienti fic</w>
sch edu
sal t</w>
s word</w>
s ons</w>
s no
s low
s c
s at</w>
s ac
ri tish</w>
ri d</w>
resul ts</w>
res cu
recogni ze</w>
re turned</w>
re gre
re comm
ra ins</w>
ra in
r ound</w>
r ar
rar ely</w>
pu zz
pu l
propos al</w>
prof es
pro vi
presi dent</w>
pre ss</w>
pr oud</w>
pos i
por tunity</w>
poli ce
police man</w>
play ers</w>
pl ans</w>
pl ac
pic k
pi gg
pigg y</w>
physic al</w>
per son
pe ci
pati ence</w>
par ties</w>
par ti
par ked</w>
pa ying</w>
p y
p ushed</w>
p ush</w>
p ted</w>
p ond</w>
ow es</w>
our ite</w>
oun ded</w>
oun ce</w>
op portunity</w>
off er</w>
nor mal</w>
non sense</w>
ne l</w>
nat ure</w>
n it
n am
mus ic
mu m</w>
mu l
mp le</w>
me an
me al</w>
mat h</w>
magaz ine</w>
ma ge</w>
ma d</w>
m ou
m ood</w>
m er</w>
los ing</w>
lon ely</w>
lo g
list ened</w>
lin es</w>
li ed</w>
lear ly</w>
le st</w>
l y
l o</w>
l d
l ay</w>
kin dness</w>
j a
inter est</w>
inno cent</w>
in ly</w>
im prove</w>
ill ness</w>
il li
ici al</w>
ic h
i m</w>
i est</w>
i can</w>
i ans</w>
hu m
hu ge</w>
ho li
ho le</w>
hi ding</w>
hel ps</w>
hea d
har der</w>
happ ens</w>
ha mmer</w>
h ang
gu il
gu ard</w>
goo ds</w>
go ld</w>
gi ving</w>
gener ation</w>
g ing</w>
frien dly</w>
fr an
fore ver</w>
for d</w>
foo t
fol lowed</w>
flow er</w>
fir m</w>
fir ed</w>
fin ite</w>
fav ourite</w>
faul t</w>
fal ling</w>
f ool</w>
f it</w>
f f</w>
exhau sted</w>
exc ited</w>
ex am</w>
evi dence</w>
every where</w>
est im
escap e</w>
er ing</w>
en viron
en tr
en ly</w>
en ding</w>
ele cted</w>
el s</w>
econ o
earthqua ke</w>
e y
e igh
e er</w>
e d
e ball</w>
du e</w>
dro p</w>
drin ks</w>
do wn
do ors</w>
dis gu
dis c
disc us
dire ct</w>
difficul ty</w>
di v
di plo
di a</w>
determin ed</w>
deser ve</w>
des k</w>
den y</w>
deli cious</w>
deci de</w>
d at
dat a</w>
d anced</w>
cu ri
cre ate</w>
convin ced</w>
contri but
contr act</w>
congrat u
concer t</w>
con trol</w>
con su
con cen
concen tr
col or</w>
co pi
co late</w>
cle ver</w>
cl us
cl ou
cho colate</w>
che ese</w>
chang ing</w>
cer e
car ds</w>
can dy</w>
camer a</w>
cal m</w>
cal ling</w>
ca used</w>
c ool</w>
c learly</w>
c ine
c hal
butt on</w>
buil t</w>
bu tter</w>
bu l
bro thers</w>
bla me</w>
bl an
bir d</w>
ben ef
belie ved</w>
bed room</w>
be ef</w>
be coming</w>
be at</w>
be ar</w>
b re
b oss</w>
b its</w>
b ite</w>
b it
b er
b ar</w>
b ank</w>
b an
b ad
aver age</w>
au tumn</w>
arti cle</w>
arrog ant</w>
arre sted</w>
appoin tment</w>
app ro
app e
any where</w>
ans w
an u
ag s</w>
adver ti
ad d</w>
ac hed</w>
absolu tely</w>
ab i
a va
a head</w>
a .
Sm ith</w>
S u
S e
N o
M i
L in
Ital y</w>
H o
H i</w>
G r
Euro pe</w>
Euro pe
E speranto</w>
C an
B ritish</w>
B raz
Al ger
A p
1 1</w>
you ng
young er</w>
y al</w>
x ty</w>
wonder ing</w>
win ning</w>
wi de</w>
wha le</w>
weir d</w>
wea k</w>
we some</w>
we e</w>
we ap
we al
wash ing</w>
wash ed</w>
w ood</w>
w is
w ind</w>
vo ice</w>
vi l</w>
ver s</w>
ven ted</w>
vege tables</w>
val id</w>
v ely</w>
v ase</w>
v ar
us an</w>
un less</w>
ug ly</w>
tw enty</w>
troub les</w>
trans lations</w>
ton gue</w>
to tal</w>
tici p
ti ves</w>
thous and</w>
the ma
thema tics</w>
th ick</w>
th ered</w>
tex t</w>
ter ms</w>
ter ing</w>
ter ia</w>
tem per
temper at
temperat ure</w>
te en
teen ag
ta tion</w>
t oo
t an
sym bo
symbo l</w>
swe at
sur ance</w>
sugg est</w>
sudd enly</w>
su ade</w>
str on
stea d</w>
ste p</w>
stan tly</w>
sta ying</w>
st ren
stren g
st ra
st ood</w>
st ice</w>
st ance</w>
spo t</w>
spe cial</w>
sp read</w>
sp i
sp ending</w>
sp ell</w>
son gs</w>
sol ved</w>
sof a</w>
soci ety</w>
so lution</w>
so ft</w>
slow ly</w>
sli pped</w>
skir t</w>
si xty</w>
si tive</w>
si on
si mple</w>
sho wed</w>
sha me</w>
sh oo
sh el
shel f</w>
ser v
sen sitive</w>
sel fish</w>
se x</w>
scienti sts</w>
sci ence</w>
schedu le</w>
sandw ich</w>
sal ad</w>
sa ved</w>
sa ve</w>
sa tion</w>
sa fe
sa d</w>
s wee
s unny</w>
s in</w>
s cho
rum or</w>
ru le</w>
ru ined</w>
row ned</w>
ris k</w>
ri se</w>
ri ghts</w>
ri ce</w>
ri bu
respon d</w>
resi dent</w>
requ est</w>
repa ired</w>
rel ated</w>
regre t</w>
ref le
re qui
re pe
re moved</w>
re mind</w>
re lie
re ached</w>
r in
r ank</w>
r .</w>
pun ished</w>
proper ly</w>
promis ed</w>
pro ved</w>
prin cess</w>
pri v
pres sure</w>
pre p
prep are</w>
pre g
preg n
pr on
pot ato
potato es</w>
post card</w>
posi tion</w>
pos sibility</w>
popu lation</w>
poli tical</w>
poli te</w>
poe m</w>
po l
po c
poc kets</w>
pleas ure</w>
plan e</w>
pic n
picn ic</w>
pi zz
pi e</w>
ph il
phil os
philos op
philosop h
philosoph y</w>
ph en
phen o
pheno men
phenomen on</w>
per mission</w>
peci ally</w>
pas sword</w>
pas sport</w>
pan ts</w>
pain t</w>
p ur
p tion</w>
p sy
p ir
p in</w>
p acked</w>
p ack</w>
os co
orang es</w>
or m
or g
op ening</w>
on na</w>
on don</w>
obje ctive</w>
ob ject</w>
o b</w>
no ti
neighbor s</w>
n ose</w>
music ian</w>
mo der
min i
mi ddle</w>
mi c</w>
me ss</w>
me d
man u
man ded</w>
mag ed</w>
ma thematics</w>
m ur
m it</w>
lu m
lo ck</w>
lo cal</w>
li ghts</w>
leg al</w>
le ad
la p</w>
l ap
l ab
kni ves</w>
kis sing</w>
kee ping</w>
k ly</w>
k il
ju stice</w>
ju dge</w>
je al
jeal ous</w>
it ar</w>
ist ence</w>
issu e</w>
introdu ced</w>
introdu ce</w>
ine ers</w>
in ts</w>
in tended</w>
in surance</w>
in sul
in stead</w>
in s
in de
in ci
imag ine</w>
im p
il ure</w>
il able</w>
ignor e</w>
i ve</w>
i th
i ed</w>
hor se</w>
hor ri
holi day</w>
ho l</w>
ho l
ho b
hob by</w>
high ly</w>
high er</w>
her o</w>
her o
hel lo</w>
head ache</w>
happ iness</w>
hang ing</w>
han g</w>
ha dn</w>
h ine</w>
h ell</w>
h eat</w>
guil ty</w>
gu itar</w>
gu est
guest s</w>
gre w</w>
gre en</w>
gr oup</w>
gr ap
go d</w>
gi ant</w>
gh osts</w>
gen cy</w>
ga thered</w>
g onna</w>
fu cking</w>
fran kly</w>
foreig n</w>
for gotten</w>
fl at</w>
fil m</w>
fe ed</w>
fal len</w>
fa ith</w>
fa ilure</w>
f ree
f re
f lies</w>
ex pres
ex pla
ex istence</w>
evi l</w>
es pecially</w>
er ence</w>
equ al</w>
enti re</w>
eng ineers</w>
eng ag
en y</w>
en tered</w>
en ter</w>
en d
emp ty</w>
el led</w>
eg g</w>
effe ct</w>
econo my</w>
eat s</w>
ear li
e volution</w>
e ts</w>
e mer
dra w</w>
doub ts</w>
div or
dish es</w>
dis count</w>
di es</w>
des p
des ig
des cri
denti al</w>
den ied</w>
dee ply</w>
de par
de cl
de b
dd en</w>
daugh ters</w>
d ry</w>
d on
d est</w>
d ers</w>
d ating</w>
cur tain</w>
cru el</w>
crow d</w>
cros sed</w>
cri sis</w>
cri min
crea m</w>
cre ated</w>
cr ush</w>
cou sin</w>
copi es</w>
coo ki
contribut or</w>
condi tion</w>
concer ned</w>
con ver
con stru
con du
comm itted</w>
com ment</w>
com ic</w>
co ward</w>
co ver</w>
co hol</w>
cle an
cine ma</w>
ci tiz
ci l</w>
char ac
chang es</w>
chal len
ch an
cere mony</w>
ce an</w>
cap tain</w>
canc er</w>
bur ned</w>
bre ath</w>
br ush</w>
bott les</w>
bor ing</w>
bor ed</w>
boo k
bo ard</w>
bl ind</w>
bir ds</w>
belie ves</w>
belie f</w>
beg in</w>
beau ty</w>
be have</w>
be ating</w>
bas eball</w>
ban an
bad ly</w>
b rain</w>
b lo
b er</w>
b ac
ava ilable</w>
att le</w>
att acked</w>
ath le
at tr
at or</w>
as h
ar ms</w>
ar ds</w>
appear ance</w>
ap ed</w>
ap art</w>
ap ar
ant age</w>
ang les</w>
ang er</w>
an x
an c
am p</w>
am ong</w>
am bi
al lows</w>
al l
al ism</w>
al cohol</w>
air port</w>
aggres sive</w>
af ford</w>
adv antage</w>
ad di
ac tive</w>
abi lity</w>
a. m</w>
a wesome</w>
a ti
a o
W ar</w>
U S
T ur
T u
T he</w>
S usan</w>
S a
Rus sian</w>
P resident</w>
Lin da</w>
L ondon</w>
K o
K ate</w>
J im</w>
In dia</w>
Europe an</w>
D e
Chin a</w>
Braz il</w>
B ob</w>
B e
Amer ican</w>
20 1
0 00</w>
z er
zer o</w>
your selves</w>
yo to</w>
yo n
y side</w>
y le</w>
y g
y el
x ed</w>
writ er</w>
wor n</w>
wor kers</w>
wo ke</w>
wis dom</w>
wh om</w>
wh ich
which ever</w>
wh er
wher ever</w>
wh eel</w>
weap on</w>
weal thy</w>
we igh
we b
web site</w>
war ri
warri or</w>
war n</w>
war ming</w>
war ds</w>
wal king</w>
wa sting</w>
w ol
w le
vot ed</w>
volunte ered</w>
vir us</w>
vir g
vic tory</w>
vic ti
vic es</w>
vi ously</w>
vi e
ver ty</w>
ver sity</w>
ven ty</w>
v ors</w>
v ity</w>
ur in
un t</w>
un known</w>
un dance</w>
u t
u res</w>
ty pe</w>
tw el
tur y</w>
tun nel</w>
tt led</w>
tru sted</w>
tre at</w>
tra di
tr yside</w>
tr unk</w>
tr ay</w>
tr apped</w>
tou ri
too th
to ward</w>
to mo
tin y</w>
tim id</w>
tic kets</w>
tic ing</w>
tic ally</w>
ti tion</w>
ti te</w>
ti ous</w>
ti li
ti ger</w>
thous an
thousan ds</w>
thir d</w>
ther n</w>
the sis</w>
the m
them selves</w>
th under</w>
th i
thi ef</w>
tex t
ter y</w>
ter m</w>
ten ds</w>
teach ers</w>
te ch
tech no
tax es</w>
tar get</w>
tal lest</w>
ta ught</w>
ta ins</w>
ta inly</w>
ta il</w>
t ti
t s
t os
t le
tle man</w>
t ings</w>
t ear</w>
t act</w>
sym pa
sympa th
swe et</w>
sus pic
survi vors</w>
survi ve</w>
surpri se</w>
suppor ted</w>
super market</w>
sup er</w>
sudd en</w>
sub way</w>
su ici
suici de</w>
stu ff</w>
stu dies</w>
stu died</w>
stron ger</w>
streng th</w>
strang ers</w>
strang er</w>
stra ight</w>
stor m</w>
sto len</w>
sto ck</w>
ste pped</w>
stat us</w>
stat ue</w>
st ree
stree ts</w>
st ook</w>
st one</w>
st ick</w>
st i
st ered</w>
st ant</w>
st and
spi der</w>
spe ci
sp ic
sp ends</w>
sor s</w>
so li
soli d</w>
sm iling</w>
sm ell</w>
sli p</w>
sk in
skin ny</w>
sit ting</w>
sist ers</w>
sion al</w>
sil ly</w>
si des</w>
shor ter</w>
sho pping</w>
sho ck</w>
sha king</w>
sh it</w>
sh ine</w>
sever ance</w>
serv ice</w>
ser ies</w>
sen ti
sear ch</w>
se venty</w>
se cur
secur ity</w>
se ction</w>
scho lar</w>
sc ary</w>
sal ary</w>
safe ty</w>
sa ving</w>
s y</w>
s wear</w>
s w
s ses</w>
s our</w>
s cre
s cis
scis sors</w>
ru g</w>
row ed</w>
roo ms</w>
ro pes</w>
ro of</w>
ro le</w>
ro l
ro cks</w>
ri fic
ri es</w>
ri c</w>
resul t</w>
respon sibility</w>
resp e
resour ces</w>
resi stance</w>
rescu ed</w>
res ist</w>
requi res</w>
repe at</w>
repa ir</w>
rema ined</w>
rema in</w>
reli gi
recomm end</w>
reali zed</w>
rea ds</w>
re ven
re mar
re le
re gu
regu lar
regular ly</w>
re g
re du
re cen
recen tly</w>
re ality</w>
rab bits</w>
ra w</w>
ra ined</w>
r ying</w>
r ty</w>
r ough</w>
r ose</w>
r ace</w>
r ac
qu ar
py ra
puzz le</w>
psy chi
psychi c</w>
profes sional</w>
prof ess
profess or</w>
produ cts</w>
produ ct</w>
pro ving</w>
pro posed</w>
pro per</w>
priv ate</w>
pri ved</w>
pri l</w>
pregn ant</w>
pre vented</w>
pre tti
pre sen
pre cious</w>
practi cal</w>
pr ac
post p
postp one</w>
pol lution</w>
pois on</w>
poe ms</w>
po w
po verty</w>
po thesis</w>
po t</w>
po et</w>
po cket</w>
pleas ant</w>
plan ning</w>
plan ation</w>
pl u
pizz a</w>
pick pockets</w>
pic ked</w>
pi c</w>
photo s</w>
ph ones</w>
perfe ctly</w>
per suade</w>
per severance</w>
pen dent</w>
pen cil</w>
pe tition</w>
pe anu
peanu ts</w>
par don</w>
pain ful</w>
pa y
p raised</w>
p ra
p ou
pou red</w>
p ills</w>
p ha
p ath</w>
p ac
ou se</w>
ou Tu
os en</w>
org ani
orang e</w>
or ig
orig in
or dered</w>
op tions</w>
on ous</w>
on line</w>
on gs</w>
on a
ona ire</w>
olo gy</w>
off ic
offic er</w>
occ ur
occ as
occas ion</w>
oc cu
ob viously</w>
ob lig
o wer</w>
o w</w>
o il</w>
o ha
o d
od d</w>
o cean</w>
o be
nu ts</w>
nu mb
noti ce</w>
no r</w>
no ise</w>
nit ure</w>
ner ve</w>
neigh b
necess ar
necessar ily</w>
near ly</w>
near est</w>
na tions</w>
na p</w>
n oun
my ster
mus ical</w>
mul ti
mou th</w>
mos qu
mon s</w>
moder n</w>
mista ken</w>
mis understanding</w>
mis er
mini mum</w>
mi stook</w>
mi les</w>
mi d
mer cy</w>
men tal</w>
med al</w>
me th
me chan
me at</w>
me as
me als</w>
mat ure</w>
mat er
mater i
mat ch</w>
manu al</w>
manag ed</w>
maj ority</w>
maj or</w>
magaz ines</w>
mac hine</w>
ma tic</w>
ma ster</w>
ma m
mam mal</w>
ma in</w>
m irac
mirac le</w>
m i</w>
m ers</w>
m ate</w>
m ans</w>
lum bus</w>
los es</w>
log ical</w>
lo yed</w>
lo ver</w>
lo vely</w>
lo gy</w>
lo b
lob al</w>
lin k</w>
li ters</w>
li shed</w>
li king</w>
li fe
life time</w>
li an</w>
le vel</w>
le tting</w>
lat ely</w>
lar ger</w>
lap top</w>
la v
la id</w>
la dy</w>
l ying</w>
l oud</w>
l an
l ack</w>
kno wle
kno ck</w>
k id</w>
k a</w>
ju mp
ju d
jo ke</w>
je ans</w>
ja il</w>
j el
j ack</w>
ith ful</w>
it self</w>
it ect</w>
it ate</w>
ir on</w>
inter national</w>
instru c
instruc tions</w>
inde pendent</w>
increas ed</w>
in tend</w>
in sp
in k</w>
in flu
in come</w>
imp act</w>
imag ination</w>
im ed</w>
il legal</w>
ignor ed</w>
ic s</w>
hy pothesis</w>
hun g</w>
hum or</w>
hou ses</w>
hon ey</w>
ho ping</w>
ho mas</w>
hero in</w>
heav ily</w>
har v
hand some</w>
han ded</w>
ha tes</w>
ha bit</w>
h in
h a</w>
gu lar</w>
gu ide</w>
gu es
gues sed</w>
grand ma</w>
gra du
gott a</w>
goo d
good b
goodb ye</w>
go ld
gi ft</w>
gh ting</w>
geni uses</w>
geni us</w>
gener ally</w>
gen tleman</w>
gar age</w>
ga tion</w>
g lobal</w>
g ger</w>
g ay</w>
g as</w>
fur ther</w>
fur niture</w>
fu ton</w>
fu el</w>
frien d
friend ship</w>
fore c
forec ast</w>
for ms</w>
for bi
forbi dden</w>
foot ball</w>
foo t</w>
flu ent</w>
fl ying</w>
fin ger</w>
fi ghting</w>
fi el
fiel d</w>
feel s</w>
fe teria</w>
faul ts</w>
fac es</w>
fa ithful</w>
fa ir</w>
f un
f oun
f os
f ond</w>
f lav
f icial</w>
f as
expla ined</w>
exam ination</w>
ex tre
ex press</w>
ex plo
ex planation</w>
ex pl
ex change</w>
ex ce
ex act</w>
every day</w>
even tually</w>
ev ents</w>
est ab
estab lished</w>
er ror</w>
environ ment</w>
entr ance</w>
enti rely</w>
enjo ys</w>
engag ement</w>
en du
endu re</w>
en ced</w>
ele ct</w>
ele ct
elect ri
eigh teen</w>
eas ier</w>
earli er</w>
ear ed</w>
ea s</w>
e fully</w>
du ty</w>
du ck</w>
dro ve</w>
dro pped</w>
down town</w>
doub t</w>
do w</w>
dist ribu
dist in
disgu sting</w>
discus sed</w>
disco vered</w>
dire ctor</w>
dire ction</w>
di sor
di sa
di rty</w>
di ag
di a
determin ation</w>
dest ination</w>
desp ise</w>
deser ves</w>
des ire</w>
depar ture</w>
denti st</w>
de te
de prived</w>
de manded</w>
de finite</w>
de f
de ed</w>
de cor
de cei
da maged</w>
da ily</w>
d y
d rowned</w>
d ried</w>
d it</w>
d ear</w>
cul ture</w>
cu re</w>
cu m
ct at
cros sing</w>
crimin al</w>
cri me</w>
cre dit</w>
cra p</w>
cr ashed</w>
coun tryside</w>
corre ctly</w>
cooki es</w>
conver sation</w>
contri bu
contr ary</w>
constru ction</w>
congratu lations</w>
conf is
condu ct</w>
concer n</w>
concentr ate</w>
con tin
con fi
con clus
compli cated</w>
comple x</w>
compla ints</w>
compla ining</w>
commun ic
comm and</w>
com par
co vered</w>
clu b</w>
clou ds</w>
clos ely</w>
clean ed</w>
cl asses</w>
citiz ens</w>
cir cum
chi e
che er</w>
che ating</w>
challen ge</w>
ch osen</w>
ch itect</w>
ch ess</w>
ch at</w>
cer tainly</w>
cen tury</w>
celebr ate</w>
ce l</w>
ce iling</w>
car efully</w>
cal ls</w>
ca st
ca feteria</w>
ca b</w>
c hair</w>
c ate</w>
c ash</w>
c as
c a</w>
bu g</w>
bor rowed</w>
bor der</w>
blan ket</w>
bl on
bi gger</w>
bel ongs</w>
bel ong</w>
beg ins</w>
be sides</w>
be ha
be es</w>
be comes</w>
be at
beat en</w>
bar king</w>
bar ely</w>
bac ks</w>
b ru
b ra
b ound</w>
b one</w>
b loo
b illi
b ile</w>
b b
b attle</w>
b ags</w>
auth ority</w>
au l</w>
att ack</w>
ato mic</w>
at temp
at in</w>
at e
assu me</w>
as y</w>
as sist
as ide</w>
arti ficial</w>
ar chitect</w>
appro ve</w>
appear ed</w>
appe tite</w>
app les</w>
app ear</w>
apologi zed</w>
apar tment</w>
ap pl
ap it
anx ious</w>
answ ered</w>
an ti
an ity</w>
an dr
an cy</w>
ama zing</w>
alter native</w>
al ed</w>
al a
adv anced</w>
adm it</w>
addi cted</w>
ad ed</w>
ad dressed</w>
ad ded</w>
ad ap
ad a</w>
acti vity</w>
acce pted</w>
acc ent</w>
ac tion</w>
ac t
ac id</w>
ac e
ab undance</w>
ab sur
a z
a unt</w>
a tive</w>
a thy</w>
a imed</w>
a h</w>
a ff
a di
Y ouTu
Un ion</w>
T ower</w>
T homas</w>
T his</w>
Su n</w>
Re petition</w>
R o
P ro
P aul</w>
N ations</w>
N ancy</w>
M r.</w>
M at
L u
L atin</w>
K yoto</w>
K ing</w>
J e
Ital ian</w>
H en
Gr and
G re
Co lumbus</w>
Ch ar
Can ada</w>
C ath
C apit
Australi an</w>
Alger ia</w>
A pril</w>
5 0</w>
201 3</w>
19 8
19 7
1 0
, 000</w>
z en</w>
yon d</w>
yg ones</w>
yel low</w>
y th
yth ag
ythag or
ythagor as</w>
y p
yp ti
ypti an</w>
y en</w>
x y</w>
wr in
wrin k
wrink led</w>
wr apped</w>
wol f</w>
wit ness</w>
wit ne
win gs</w>
win ging</w>
win ds</w>
wil d
wi dow</w>
wi der</w>
wh it
whit es</w>
wh is
wh i
wh en
when ever</w>
wel ling</w>
wel d</w>
weigh s</w>
we ver</w>
we l</w>
we i
wei gh</w>
war s</w>
wan ting</w>
wan na</w>
wa sted</w>
wa m</w>
wa ist</w>
w re
wre ck</w>
w ound</w>
w ool</w>
w oo
woo ds</w>
w et</w>
w are</w>
w all</w>
w a</w>
vot e</w>
vol can
vis it
vis i
visi ble</w>
virg in</w>
viol in</w>
viol ent</w>
vie ws</w>
vide o
victi m</w>
vi ous</w>
vi or</w>
vi a</w>
ver ing</w>
ven tion</w>
ven s</w>
vel ous</w>
vel op
velop ed</w>
vege tar
ve ment</w>
ve mber</w>
var ious</w>
val ue</w>
val u
valu able</w>
vac ations</w>
va st
vast ated</w>
v y</w>
v ite</w>
v ital</w>
v ated</w>
v ant</w>
v ain</w>
v age</w>
us ions</w>
us ion</w>
us e
urin ating</w>
ur ges</w>
ur ged</w>
ur g
urg ent</w>
ur day</w>
ur b
uni forms</w>
une mp
unemp loyed</w>
une asy</w>
un t
un shot</w>
un likely</w>
un ks</w>
un healthy</w>
un gar
ungar ian</w>
un g</w>
un for
un e</w>
un comfortable</w>
un ci
unci ation</w>
un a
ul tim
ultim ate</w>
ul ous</w>
u ko</w>
u ine</w>
u es</w>
u de</w>
u dd
twel ve</w>
tw are</w>
tur ns</w>
tun e</w>
tu me</w>
tu de</w>
tu al</w>
tt es</w>
tt e</w>
tt able</w>
ts Ap
tsAp p</w>
tru sting</w>
tru mp
trump et</w>
tre ats</w>
travel s</w>
trans lation</w>
trans l
tra yed</w>
tra p</w>
tra de</w>
tr an
tran spor
transpor ted</w>
tr ag
tr a</w>
touri sts</w>
tor ture</w>
tor ren
torren ts</w>
tooth ache</w>
tomo bile</w>
to y</w>
to wards</w>
to vers</w>
to e</w>
to cks</w>
tis m</w>
tion ed</w>
tili z
ticip ated</w>
tici an</w>
ti tude</w>
ti re</w>
ti ght</w>
thre at</w>
thre at
threat ened</w>
thr one</w>
thir teen</w>
ther mo
ther ing</w>
theat re</w>
the less</w>
th us</w>
th ro
th ly</w>
th ence</w>
th ed</w>
text book</w>
tex ting</w>
ten ted</w>
ten ed</w>
ten ding</w>
ten den
tenden cy</w>
temp tation</w>
temp er</w>
teenag ers</w>
teenag er</w>
techno logy</w>
te tan
tetan us</w>
te book</w>
tar ded</w>
tal ent</w>
ta tions</w>
ta ste</w>
ta ined</w>
t ted</w>
t re</w>
t our</w>
t ool</w>
t less</w>
t le</w>
t ches</w>
t ched</w>
t backs</w>
t at
tat too</w>
t ally</w>
t ack</w>
sympath ize</w>
swee p</w>
sweat y</w>
survi val</w>
surpri sing</w>
sur r
sur ger
surger y</w>
sur face</w>
suppor tive</w>
supp lies</w>
sun scre
sunscre en</w>
suit case</w>
suit able</w>
sugg est
suff ered</w>
suff er</w>
succ ess
sub je
su s</w>
stru gg
str act</w>
sto m
stom ach</w>
ster fuck</w>
stea k</w>
ste ps</w>
ste ering</w>
star ing</w>
stand ards</w>
stan ces</w>
st yle</w>
st ro
st ion</w>
st ers</w>
st are</w>
st ard</w>
st amp</w>
st al
stal ling</w>
st ain</w>
st acked</w>
squirre l</w>
squ are</w>
spic y</w>
spee ding</w>
spea ker</w>
spe ctive</w>
spe ctat
spectat ors</w>
sp y</w>
sp u
sp rang</w>
sp ite</w>
sp irac
spirac y</w>
sp are</w>
sp an</w>
sou thern</w>
sor row</w>
some day</w>
soldi er</w>
sol dering</w>
sof tware</w>
sof tly</w>
so w</w>
so cks</w>
so cial</w>
so be
sobe yed</w>
so a
smar ter</w>
sm oo
sm iled</w>
sm ashed</w>
sli d</w>
sla in</w>
ski pped</w>
ski p</w>
ski ing</w>
sk illed</w>
sin s</w>
sin k</w>
si r</w>
si a</w>
shou l
shoul der</w>
shoo ting</w>
shoo t</w>
sho ws</w>
sho w
sho e</w>
sho cked</w>
shar pen</w>
shar p</w>
sha ken</w>
sh u
sh m
shm allows</w>
sh eer</w>
ser vices</w>
ser va
ser t</w>
separ ati
separati sts</w>
separ ate</w>
senti al</w>
sen ds</w>
sel dom</w>
see med</w>
see ds</w>
secre tary</w>
secon ds</w>
seas ons</w>
seas es</w>
sear ching</w>
sear ch
search ers</w>
se ttled</w>
se ts</w>
se tbacks</w>
se qu
sequ ences</w>
se ments</w>
se i
scienti st</w>
sci ences</w>
sch ar
schar ged</w>
scar f</w>
sandw ich
sandwich es</w>
sal ted</w>
sal e</w>
sac rific
sacrific es</w>
sac red</w>
sa ul
sa u
sa ke</w>
sa ka</w>
sa int</w>
sa f
s winging</w>
s wam</w>
s wal
s room</w>
s ra
sra el</w>
s our
s oun
soun ding</w>
s oner</w>
s its</w>
s ils</w>
s er</w>
s cri
s cr
scr at
scrat ching</w>
s col
scol ded</w>
s ank</w>
s age</w>
ru bb
rubb ish</w>
roo t</w>
ro wn</w>
ro ple
rople ts</w>
ro pe</w>
ro bo
robo t</w>
ro ast</w>
ris ks</w>
ris ked</w>
ri o
ri f
rif le</w>
ri ages</w>
reven ge</w>
respe cted</w>
resour ce
resource ful</w>
resi dential</w>
rescu e</w>
requ ired</w>
ren ted</w>
religi on</w>
relie ved</w>
relie f</w>
reli able</w>
rela xed</w>
rela tion
reg ard</w>
ref use</w>
ref re
redu ced</w>
recomm ended</w>
recogni zed</w>
reco very</w>
reci pe</w>
recei ve</w>
rea k</w>
re war
re volution</w>
re tired</w>
re ti
re tarded</w>
re quest
re por
re place</w>
re plac
re no
re min
re gi
re gar
regar ded</w>
re fu
re cent</w>
rain bo
rainbo w</w>
rab ic</w>
ra ys</w>
ra tional</w>
r ush</w>
r ou
r osco
rosco pe</w>
r ors</w>
r ings</w>
r ate</w>
r are</w>
r ap
r age</w>
r a</w>
quest i
quar ter</w>
qu ali
pyra mi
pyrami ds</w>
pur p
purp ose</w>
pun is
punis h
punish ment</w>
pul ses</w>
pu ts</w>
pu mp</w>
pu ll</w>
provi ding</w>
propos es</w>
proper ty</w>
pron unciation</w>
pron ounce</w>
prof it</w>
produ ctive</w>
produ ced</w>
pro of</w>
pro mot
pro gra
prin ts</w>
prin ted</w>
pri soner</w>
pretti est</w>
presi dential</w>
presen ta
pres ence</w>
pre vious</w>
pre tending</w>
pre tended</w>
pre tend</w>
pre serve</w>
pre di
practi ce</w>
prac ticing</w>
pra ise</w>
pos ted</w>
pos ite</w>
poli tician</w>
pois onous</w>
po x</w>
po wer
po or
pleas ures</w>
ple s</w>
play ground</w>
play er</w>
plac es</w>
pl ural</w>
pl ant</w>
pie ces</w>
pic k</w>
pic al</w>
pian ist</w>
pi ge
pige ons</w>
pha bet</w>
ph ar
phar mac
person ality</w>
person al</w>
per spective</w>
per mit</w>
per man
perman ent</w>
per cent</w>
per ate</w>
pe ace</w>
pe ac
peac eful</w>
pay check</w>
pat ent</w>
parti ally</w>
par t
par o
par ently</w>
pain tings</w>
pa used</w>
pa ir</w>
p us</w>
p tive</w>
p table</w>
p oo
p is
p int</w>
p ill</w>
p il
p ful</w>
p an</w>
p al</w>
p age</w>
p .
over looked</w>
oun t</w>
ou ter</w>
ou gh
osco w</w>
os tume</w>
os ity</w>
os is</w>
os ion</w>
os es</w>
orm ous</w>
origin al</w>
organi zed</w>
or us</w>
or tu
or ld</w>
or ies</w>
or din
ordin ary</w>
or ders</w>
or dering</w>
opin ions</w>
oper ation</w>
oper ate</w>
oper a</w>
op posite</w>
op her</w>
op at
opat ra</w>
on y</w>
on to</w>
on ents</w>
ol dest</w>
ok oha
okoha ma</w>
ok ay</w>
off ended</w>
off en
occur red</w>
occu r</w>
oblig ed</w>
obje cts</w>
obe y</w>
ob serve</w>
o lic</w>
o es</w>
o ds</w>
numb ers</w>
nor th</w>
no where</w>
no tebook</w>
no te</w>
ni versity</w>
ni fic
neighbor hood</w>
neighb or</w>
nee dn</w>
ne ither</w>
ne go
nego ti
ne es</w>
ne ck</w>
na tives</w>
na sty</w>
na ked</w>
na ive</w>
na ils</w>
na il</w>
na d</w>
n ine</w>
n ick
nick name</w>
n ar
nar row</w>
myster y</w>
mur der</w>
multi lin
multilin gu
mp tions</w>
mp s</w>
mp ag
mpag ne</w>
moun tains</w>
mos tly</w>
mor tal</w>
mor ous</w>
mor gue</w>
mor al</w>
mon key</w>
mon d</w>
mo ving</w>
mo ves</w>
mo vement</w>
mo e</w>
mo de
mode l</w>
mo cr
mm ed</w>
miser y</w>
min y</w>
mili ated</w>
mil li
milli onaire</w>
mid night</w>
mi sts</w>
meth od</w>
mer ci
men tion</w>
memor ize</w>
meas ure</w>
mean ings</w>
mean ing</w>
me ter</w>
me ssed</w>
me ets</w>
me eny</w>
mb ling</w>
mar velous</w>
mar shmallows</w>
mar ke
marke ting</w>
mar k</w>
manag ement</w>
man ner</w>
man age</w>
ma stered</w>
ma r</w>
ma p</w>
ma id</w>
ma dness</w>
m pl
m pic</w>
m ical</w>
m ic
mic roscope</w>
m ere</w>
m ely</w>
m at</w>
m ale</w>
ly mpic</w>
ly fish</w>
lu gg
lugg age</w>
loo p</w>
log ist</w>
lo y
lo ving</w>
lo cated</w>
lo an</w>
lo ad</w>
lo a
li ver</w>
li ties</w>
li ss</w>
li on</w>
li gh
li ct</w>
li ber
li ar</w>
li a</w>
lee ding</w>
lead er</w>
lea ther</w>
lea f</w>
lea d</w>
le y</w>
le w</w>
le ts</w>
le opatra</w>
le mons</w>
le is
leis ure</w>
le f
lef tovers</w>
le c
le aped</w>
laugh ter</w>
lau gh</w>
lat or</w>
lab or</w>
lab or
la im
laim s</w>
l ings</w>
l ent</w>
l eng
knowle dge</w>
kno cked</w>
kil o
ki dding</w>
kee per</w>
k y</w>
k ward</w>
k nees</w>
k ar
jump ed</w>
jo y</w>
jo king</w>
jo kes</w>
jo ined</w>
jo gg
jogg ing</w>
jo bs</w>
jel lyfish</w>
j ury</w>
j i</w>
j ac
jac ket</w>
itch es</w>
it ting</w>
it er</w>
it e
it ation</w>
issu es</w>
is land</w>
is ed</w>
irre gular</w>
ir person</w>
ir oned</w>
ir ly</w>
inv inci
invinci ble</w>
interest s</w>
inter ru
inter net</w>
intellig ence</w>
insul ting</w>
insp ired</w>
inj ury</w>
in y</w>
in vention</w>
in tention</w>
in ted</w>
in suff
in stantly</w>
in stant</w>
in si
in qu
in gen
ingen ious</w>
in g
in du
in di
in clu
impres sion</w>
immedi ate</w>
im proving</w>
im proved</w>
im ple
im patient</w>
im mortal</w>
ill top</w>
il or</w>
ignor ance</w>
ick y</w>
i tive</w>
i or</w>
i mage</w>
i ff
iff el</w>
i ety</w>
i ent</w>
i e</w>
i denti
i dea
idea s</w>
hur ts</w>
hun ch</w>
hu miliated</w>
hu man
horri fied</w>
horri ble</w>
hor ror</w>
hon ey
honey moon</w>
hon est
honest y</w>
ho pin</w>
ho ever</w>
hi stor
hi re</w>
hi king</w>
hi d</w>
her it
hel pful</w>
hear t
hear ing</w>
hea vens</w>
hea ded</w>
he els</w>
harv est</w>
har m</w>
har dest</w>
happ iest</w>
happ ier</w>
hand led</w>
hand ful</w>
hal f
half way</w>
ha tsApp</w>
ha ted</w>
ha m
ha ll</w>
ha ir
ha bits</w>
h oo
h its</w>
h ite</w>
h illtop</w>
h ill</w>
h i</w>
h ers</w>
h en</w>
gu ish</w>
great ly</w>
gre es</w>
grap es</w>
gra de</w>
gra b</w>
gr ounds</w>
gr ass</w>
gl ory</w>
gi c</w>
gi ants</w>
gh ty</w>
gh tened</w>
gh ost</w>
gg est</w>
gener al</w>
gen uine</w>
ge ment</w>
gar s</w>
gar lic</w>
gam b
gamb ling</w>
g yptian</w>
g ust</w>
g unshot</w>
g row
g ment</w>
g ital</w>
g an
fun ds</w>
fu cked</w>
fri ghtened</w>
fri es</w>
fri ed</w>
fri dge</w>
fri ca</w>
free dom</w>
fre sh</w>
fore st</w>
fore head</w>
for ty</w>
for given</w>
for getting</w>
for ce</w>
fol lows</w>
fo g</w>
fo c
flu ently</w>
flav or</w>
fl ash
fl ags</w>
fin ger
fin an
finan cial</w>
fi f
fel low</w>
fe male</w>
favor able</w>
fav or</w>
fas hi
fal se</w>
fac tory</w>
fa ke</w>
fa irs</w>
fa irly</w>
fa il</w>
f s</w>
f ro
f reak</w>
f our
f ounded</w>
f light</w>
f lat
f er
fer tiliz
f ee
f ed</w>
f ate</w>
f arm</w>
f ar
f ab
extre mely</w>
expres sions</w>
explo de</w>
expl osion</w>
experi ences</w>
experi enced</w>
expen ses</w>
expe cting</w>
expe c
expec tations</w>
exce pt</w>
exc el
exam ple</w>
exam ined</w>
ex tra</w>
ex p
ex it</w>
ev ent</w>
estim ated</w>
estim ate</w>
est ors</w>
est i
escap ed</w>
es sential</w>
es say</w>
er t</w>
er rors</w>
er red</w>
er o
environ mental</w>
entr al</w>
enjo yed</w>
end ings</w>
en vy</w>
en us</w>
en ted</w>
en ormous</w>
en nad</w>
en ess</w>
en courage</w>
en coun
encoun ter</w>
emer gency</w>
embarras sing</w>
electri city</w>
ele ph
ele n</w>
eigh ty</w>
effor t</w>
effe cts</w>
effe ctive</w>
ee k</w>
edu cated</w>
eas iest</w>
earthqua kes</w>
ea ger</w>
e ter</w>
e eny</w>
e ase</w>
dy nam
du mber</w>
du mb</w>
du cted</w>
drea ms</w>
drea ming</w>
dre sses</w>
dra wings</w>
dra wing</w>
dr ag
down stairs</w>
dol ls</w>
do cu
divor ced</w>
divor ce</w>
distribu ted</w>
distin guish</w>
dist ant</w>
discus s</w>
disco very</w>
disco ver</w>
dis liked</w>
dis courage</w>
dis appeared</w>
dis agree</w>
diplo mat</w>
difficul ties</w>
differ ences</w>
diff ers</w>
diag n
dia mond</w>
di sobeyed</w>
di seases</w>
di scharged</w>
di gital</w>
di eting</w>
di et</w>
di ence</w>
di ary</w>
di al
dial ect</w>
deta iled</w>
dest ro
descri be</w>
des sert</w>
del a
dela yed</w>
defe ated</w>
defe at</w>
dee p</w>
deci ding</w>
deb t</w>
deb ate</w>
dea f</w>
de voted</w>
de vil</w>
de veloped</w>
de vastated</w>
de pres
de grees</w>
de cent</w>
de ce
dece ptive</w>
dd ly</w>
dang ered</w>
da mage</w>
d war
d ust</w>
d un
d le</w>
d ity</w>
d ings</w>
d ges</w>
d an
custo ms</w>
custo mers</w>
custo med</w>
curi ous</w>
curi osity</w>
cur ren
cul tures</w>
cu late</w>
cu e</w>
ct or
cru tches</w>
crow ded</w>
cri tical</w>
cra ft</w>
cr oss</w>
cour t</w>
cour ag
coun tless</w>
coun ting</w>
corre cted</w>
cor pus</w>
cor ner</w>
contribu te</w>
congratu late</w>
confis cated</w>
confi dence</w>
conf erence</w>
conclus ions</w>
con tented</w>
con tent</w>
con tain</w>
con stantly</w>
con spiracy</w>
con sequences</w>
compla int</w>
comp onents</w>
comp elled</w>
comp an
compan ions</w>
communic ation</w>
commun ity</w>
commun ism</w>
comm ents</w>
comfor t</w>
com promise</w>
com posed</w>
com plain</w>
colle ge</w>
colle cted</w>
col ours</w>
col li
co py
co ins</w>
clu sterfuck</w>
clou dy</w>
clos et</w>
clos est</w>
cli mb</w>
clas sroom</w>
clas sm
cl oud</w>
circum stances</w>
cir c
ci vil</w>
ci ties</w>
cho os
chie ving</w>
che ated</w>
charac ters</w>
charac ter</w>
char ges</w>
char ged</w>
cha mpagne</w>
cha irs</w>
cha irperson</w>
cha in</w>
ch unks</w>
ch ose</w>
ch ap
chap ter</w>
cen ter</w>
cast le</w>
car rying</w>
car ried</w>
car es</w>
car eer</w>
cap ture</w>
cap ital</w>
can cel</w>
ca uses</w>
ca u
c y
c ured</w>
c ried</w>
c ostume</w>
c les</w>
c lap</w>
c laims</w>
c er</w>
c and
c ab
cab b
but tocks</w>
but ter
bus h</w>
bur n</w>
bul let</w>
bul ance</w>
bu ying</w>
bri dge</w>
brea sts</w>
brea ks</w>
brea king</w>
bra ve</w>
br ings</w>
br an
br a</w>
bo wed</w>
bo w
bloo dy</w>
blon de</w>
blo g</w>
blan kets</w>
bl in
bl ack
black board</w>
bit ter</w>
bir th</w>
bicy cles</w>
bi ggest</w>
benef its</w>
benef it</w>
belie vable</w>
beha vior</w>
begin ners</w>
beg gars</w>
be yond</w>
be trayed</w>
be tray</w>
be side</w>
be l</w>
be ings</w>
be having</w>
be cue</w>
be ard</w>
be ar
bear ing</w>
be ans</w>
be ad</w>
bas ed</w>
bar s</w>
bar ks</w>
bar becue</w>
banan as</w>
banan a</w>
bal ls</w>
ba th
ba stard</w>
ba ked</w>
b ygones</w>
b unch</w>
b rain
b ounce</w>
b lowing</w>
b low</w>
b locked</w>
b liss</w>
b leeding</w>
b iting</w>
b i</w>
b es</w>
b ath</w>
b at
b are</w>
b am
az ak
ay uko</w>
aw kward</w>
aw are</w>
avo i
auth or</w>
au tomobile</w>
au dience</w>
attr acted</w>
att end</w>
athle tic</w>
athle te</w>
at urday</w>
at titude</w>
assu mptions</w>
assist ant</w>
as sure</w>
as saul
as pir
as o
as ks</w>
as king</w>
as ed</w>
arti st</w>
arrog ance</w>
arri ving</w>
arri ves</w>
arri val</w>
argu ing</w>
ar se</w>
ar rest</w>
ar i
ar gue</w>
ar eas</w>
appl ying</w>
appe aled</w>
app ing</w>
app ears</w>
any way</w>
ant a</w>
answ ers</w>
ang le</w>
ang ed</w>
ang e</w>
andr a</w>
and oned</w>
anc estors</w>
an noun
an no
an ci
an cho
an ak
anak a</w>
ambi tious</w>
ambi tion</w>
am used</w>
am ount</w>
am bulance</w>
alter natives</w>
all er
ali bi</w>
ala xy</w>
al ty</w>
al phabet</w>
al o
al lo
al ist</w>
al ert</w>
air o</w>
aggres sion</w>
aga wa</w>
ag ue</w>
ag ree
ag ic</w>
ag en
af fairs</w>
advis er</w>
advis e</w>
adverti sing</w>
adverti sements</w>
adv ance</w>
adm ired</w>
adap t</w>
act or</w>
ack ers</w>
acce ptable</w>
acc ess</w>
ac y</w>
ac ting</w>
ac hing</w>
ac hi
ac h
ac customed</w>
ac compli
absur d</w>
absolu te</w>
abo ard</w>
ab use</w>
ab stract</w>
ab sor
ab ducted</w>
ab andoned</w>
a x</w>
a woke</w>
a v
a the
YouTu be</w>
Y u
Y okohama</w>
Y ear</w>
Y 2
Y2 K</w>
W orld</w>
W i
W hoever</w>
W hite</w>
W hatsApp</w>
W ar
V enus</w>
Un believable</w>
US B</w>
US A</w>
U niversity</w>
U S</w>
Tur key</w>
T ony</w>
T i
T anaka</w>
Su ck
Se e</w>
S te
S ou
S co
S aturday</w>
S M
Ro yal</w>
Re searchers</w>
R I
Q u
P ythagoras</w>
P re
P ortu
P eter</w>
P en
P ee
O saka</w>
O lympic</w>
No vember</w>
N or
Mon days</w>
Mi ke</w>
Mar s</w>
Mar ie</w>
Mar ia</w>
M y
M oscow</w>
M o
M is
M il
M ennad</w>
M ayuko</w>
M ay</w>
M agic</w>
L O
Ko be</w>
K en</w>
Je an
J une</w>
J ones</w>
J im
J ack
Inter national</w>
In vite</w>
In deed</w>
I to</w>
I srael</w>
Ho wever</w>
H ungarian</w>
H u
H it
H ey</w>
H elen</w>
H ar
Gre en</w>
Gr oup</w>
Ger mans</w>
G ree
Fr an
F ill</w>
F a
E iffel</w>
E gyptian</w>
D roplets</w>
D is
Co mp
Christ opher</w>
Char les</w>
Ch ile</w>
Cath olic</w>
Capit alism</w>
Can adi
C on
C ol
C leopatra</w>
C hopin</w>
C entral</w>
C ar
C airo</w>
B ye</w>
B ur
B r
B er
B ar
B an
B C</w>
Ap parently</w>
An ne</w>
An d</w>
A rabic</w>
A ra
A k
A frica</w>
A chieving</w>
6 0</w>
4 0</w>
3 00</w>
20 0
2 .
19 1
1 8
1 5</w>
1 50</w>
1 00</w>
#version: 0.2
p o
po s
pos ;</w>
a pos;</w>
& apos;</w>
a i
o u
e n
q u
e s</w>
l e</w>
r e</w>
d e</w>
p a
e s
a n
o n
n e</w>
j e</w>
ou s</w>
e u
e r</w>
es t</w>
@ -
@- @</w>
qu e</w>
l a</w>
i l</w>
pa s</w>
o i
o n</w>
en t</w>
r i
e r
t e</w>
c h
a v
t i
e m
e l
ai s</w>
v ous</w>
t r
c e</w>
e n</w>
ai t</w>
l es</w>
o m
e z</w>
p r
l &apos;</w>
m e</w>
u n</w>
a r
a u
s e</w>
s u
t u</w>
d i
n &apos;</w>
a i</w>
j &apos;</w>
po u
p l
é t
t re</w>
o m</w>
i n
o r
T om</w>
el le</w>
i l
eu x</w>
u ne</w>
d &apos;</w>
o i</w>
i s</w>
n ous</w>
l i
pa r
v i
on s</w>
c om
s s
a m
c on
e t
e t</w>
qu &apos;</w>
d é
t ou
t es</w>
a l
a u</w>
an s</w>
s i
an t</w>
en d
on t</w>
a g
pou r</w>
c &apos;</w>
d es</w>
c i
ou r
su is</w>
f ai
r e
em ent</w>
u s</w>
a p
é e</w>
d ans</w>
è re</w>
ou v
a t
oi r</w>
d e
d u</w>
b i
s on</w>
oi s</w>
qu i</w>
v o
ç a</w>
t u
o t
m ent</w>
r é
pl us</w>
fai re</w>
an g
en t
eu r</w>
s &apos;</w>
u i
m es</w>
c o
ti on</w>
m oi</w>
pr o
m &apos;</w>
l u
a s</w>
è s</w>
p en
t é</w>
ét ait</w>
e c</w>
tou t</w>
av ec</w>
v r
f ait</w>
eu r
a c
al l
p e
ê tre</w>
s i</w>
s es</w>
p ri
m on</w>
po r
b le</w>
il s</w>
c ou
f i
em p
on n
es s
c i</w>
n i
v eux</w>
pou r
s ont</w>
p er
t er</w>
m i
t emp
p i
j our
ai n</w>
é r
et te</w>
temp s</w>
c u
qu oi</w>
m a
c e
t en
qu el
su r</w>
pr é
e x
qu ot
quot ;</w>
& quot;</w>
r an
bi en</w>
v en
c r
on ne</w>
lu i</w>
ai n
e au</w>
ch o
av ez</w>
tr ès</w>
t s</w>
ê tes</w>
v ou
i m
c ette</w>
c a
b l
ét é</w>
eu t</w>
e l</w>
ag e</w>
s a</w>
m on
s er
tr av
s ais</w>
m a</w>
u s
oi t</w>
p u
end re</w>
en s</w>
g ar
il le</w>
ar ri
n o
vo tre</w>
s t
di t</w>
ch e</w>
s o
j ou
pa r</w>
l er</w>
j am
m ais</w>
d em
é ri
v oir</w>
r es</w>
o ù</w>
arri v
é s</w>
trav ai
s se</w>
e au
pour quoi</w>
e u</w>
l ai
p eux</w>
i ci</w>
av oir</w>
oi n</w>
jam ais</w>
il l
vou l
v oi
tr ouv
s eu
r es
i r</w>
t oi</w>
com ment</w>
u e</w>
t &apos;</w>
pen se</w>
f r
el les</w>
é l
h eur
cou p</w>
cho se</w>
r en
f or
t a
de v
a d
vr ai
tu re</w>
s em
a ss
t ous</w>
p h
t on</w>
f u
ce la</w>
av ons</w>
t er
m an
com me</w>
av ait</w>
ap p
s e
b eau
v er
s om
tr o
per s
p eut</w>
ent s</w>
s ou
jour s</w>
con n
beau coup</w>
an d</w>
vrai ment</w>
v re</w>
h i
c es</w>
di re</w>
pl a
pa ss
h om
m ê
a ri
av ais</w>
au x</w>
ai son</w>
ai me</w>
a b
h u
di s
pou v
ai re</w>
tro p</w>
ai m
é es</w>
pr endre</w>
g e</w>
an ce</w>
a y
é c
quel que</w>
mê me</w>
f a
r ais</w>
qu es</w>
s or
ri en</w>
g ran
ui t</w>
qu and</w>
l à</w>
en ti
d onn
d er</w>
c our
ar r
v a</w>
an ts</w>
a tion</w>
en f
b es
pe ti
n ouv
mon de</w>
g r
dé j
d eux</w>
j us
g n
g ent</w>
f ois</w>
eur s</w>
en co
enco re</w>
d é</w>
t a</w>
por te</w>
par ti
par ler</w>
o c
bes oin</w>
f f
d er
ch i
oi re</w>
g u
em i
s é</w>
ar d</w>
a ch
ti ons</w>
som mes</w>
s er</w>
pers onne</w>
m ar
m ang
m ain
dem an
b re</w>
all er</w>
ét ais</w>
vi e</w>
ss i</w>
pu is</w>
p ère</w>
m é
en ce</w>
hom me</w>
ê te</w>
l é</w>
au t</w>
an te</w>
tou jours</w>
po n
pe u</w>
b li
v ais</w>
qu el</w>
pri s</w>
c or
am i</w>
v u</w>
pr ès</w>
er ais</w>
com m
ai ent</w>
M ar
qu elle</w>
h a
d ois</w>
ch ez</w>
av ant</w>
ar gent</w>
tr ain</w>
ri ez</w>
a n</w>
î t</w>
o u</w>
n u
au ssi</w>
travai l
m in
m aison</w>
in t
con tr
M ari
en tr
b on</w>
ai ne</w>
vo y
s oit</w>
d re</w>
c l
b r
b ou
Mari e</w>
re gar
Mar y</w>
é g
voi ture</w>
ven ir</w>
n er</w>
travai l</w>
t ant</w>
oi n
no tre</w>
at t
tr es</w>
p e</w>
m o
l e
f fi
et tre</w>
au tre</w>
ten ant</w>
qu i
m or
l ement</w>
end r
ô t</w>
r a
main tenant</w>
arriv e</w>
œ u
s ans</w>
pa y
i e</w>
ha bi
eu se</w>
b u
ach et
déj à</w>
ch er</w>
r ent</w>
l eur</w>
f er
de vr
a li
a l</w>
lai ss
jour d&apos;</w>
hu i</w>
e ill
au jourd&apos;</w>
l on
f aut</w>
t ement</w>
su r
l or
f ran
ci le</w>
ét u
r et
r ait</w>
n ée</w>
jou r</w>
d ét
com bien</w>
è me</w>
v e</w>
pla ît</w>
oc cu
d or
c er
a t</w>
a ble</w>
t él
il les</w>
heur es</w>
app el
tou tes</w>
si on</w>
gran d</w>
der ni
ch an
éc ri
s ait</w>
m er</w>
m al
eu re</w>
enf ants</w>
end s</w>
e c
d u
au c
é n
é co
éco le</w>
o y
o l
o b
m oin
l ais</w>
f em
ai r</w>
ai de</w>
t ez</w>
seu l</w>
sem ble</w>
ma l</w>
li vre</w>
aim erais</w>
étu di
tou te</w>
t ôt</w>
qu es
pro bl
ess ay
co l
ç on</w>
ç ais</w>
o p
ma ti
hi er</w>
dé e</w>
b onne</w>
a près</w>
t om
ren contr
pass é</w>
par t</w>
lor s
i ne</w>
end u</w>
d r
c et</w>
S ami</w>
s û
r ou
pr emi
peti t</w>
or s</w>
jus te</w>
et s</w>
dem ain</w>
chi en</w>
ch é</w>
ang lais</w>
ai ss
vi ens</w>
occu p
fu t</w>
fran çais</w>
arr ê
a ti
a s
t eur</w>
si m
pl u
ouv er
mi eux</w>
l ang
f in
d s</w>
ch er
ai l
u ti
tr ois</w>
su i
pr en
pouv ez</w>
p end
n uit</w>
di s</w>
d ui
d ent</w>
ass ez</w>
ai der</w>
u ni
t ri
pr es
par le</w>
in t</w>
at ten
ven u</w>
tél é
seu le</w>
s é
s ouv
pré ci
o ri
g ens</w>
d û</w>
t h
pl i
p eur</w>
moin s</w>
i s
fem me</w>
f ille</w>
d ou
œu r</w>
u es</w>
r em
int ér
i gn
dé so
cho ses</w>
ch au
é ch
v eut</w>
v ent</w>
su p
s oir</w>
quel qu&apos;</w>
pré f
p ui
ou bli
nouv eau</w>
ma ri
m ère</w>
m u
f l
f ais</w>
de puis</w>
ch am
cer t
voul ez</w>
voul ais</w>
vo s</w>
v eu
sor ti
s avoir</w>
quel ques</w>
pen sais</w>
par l
n on</w>
li re</w>
i dée</w>
h eure</w>
er re</w>
en ne</w>
di ffi
d oit</w>
ce ci</w>
at s</w>
an t
por t
parti r</w>
mang er</w>
m is</w>
l o
g ne</w>
f on
en tre</w>
comm en
ag er</w>
v éri
trouv e</w>
pl ement</w>
pend ant</w>
o s</w>
heur eux</w>
er s</w>
el lement</w>
dis pos
au rais</w>
sim plement</w>
s ons</w>
s ez</w>
s ci
n om</w>
deman dé</w>
d i</w>
cr ois</w>
cour s</w>
ch ang
sem aine</w>
pr ê
n om
m ag
j eu
habi tu
f am
devr ais</w>
au tres</w>
uti li
t eau</w>
souv ent</w>
si ble</w>
s ent
s an
fai tes</w>
en te</w>
en n
dé ci
ch emi
all é</w>
achet er</w>
vr ai</w>
tom b
ti onn
s au
ri ons</w>
probl ème</w>
pri se</w>
pr om
pi è
p u</w>
m eill
l a
il i
i r
g i
et tes</w>
d es
é tr
vi ent</w>
trouv é</w>
s ens</w>
s avais</w>
s a
ri r</w>
pay s</w>
li t</w>
jus qu&apos;</w>
j et</w>
fr oi
fi n</w>
dé c
derni ère</w>
c é</w>
a de</w>
ét aient</w>
vi si
ver s</w>
u r
ret ard</w>
re c
pro ch
ph ot
ou r</w>
mor t</w>
l ettre</w>
es se</w>
dev ons</w>
con se
cham bre</w>
c ui
b al
vr es</w>
sorti r</w>
s ti
s in
ré pon
r ement</w>
qu er</w>
pr ends</w>
peti te</w>
per du</w>
pa ti
m er
m au
hi st
fam ille</w>
fa cile</w>
e il</w>
com p
c ri
ap préci
ap i
é ni
è rent</w>
vou d
v ille</w>
v er</w>
o re</w>
no s</w>
m om
lon g
intér ess
i on</w>
h ors</w>
e i
di ff
cu l
c in
c el
é ti
véri té</w>
trouv er</w>
ta ble</w>
t ard</w>
r s</w>
r aison</w>
ph on
par ents</w>
mé di
g ag
er ai</w>
d onne</w>
conn aiss
con tre</w>
b ri
auc un</w>
al ement</w>
a que</w>
étr ang
y eux</w>
so y
ser a</w>
ques tion</w>
po li
po i
n at
mom ent</w>
g no
es te</w>
e ille</w>
ch e
c er</w>
c ar
au r
ap prendre</w>
all ez</w>
ai se</w>
é cou
è res</w>
vi vre</w>
v ue</w>
télé phon
su c
seu lement</w>
s te</w>
s ous</w>
s ent</w>
pour rais</w>
pos sible</w>
por ter</w>
pen ses</w>
pe c
pa u
pa sse</w>
n é</w>
man i
m éri
lors que</w>
l oin</w>
jeu ne</w>
hist oire</w>
h ô
déj eu
diffi cile</w>
diff ér
com pl
arriv é</w>
app elle</w>
a le</w>
é li
è te</w>
t ent</w>
s tu
s oi
s al
r ess
préf ér
pour rait</w>
piè ce</w>
n our
m ou
li vres</w>
lang ue</w>
lai sse</w>
jour née</w>
gar çon</w>
er a</w>
donn é</w>
d ont</w>
cr oire</w>
cou p
conn a
con dui
ch oi
cert ain
auc une</w>
ac cor
a f
J a
B o
î ner</w>
voy age</w>
vi te</w>
vi endr
u i</w>
travail le</w>
t ête</w>
t és</w>
s ois</w>
s enti
po int</w>
par ce</w>
onn es</w>
mé de
méde ci
mo t</w>
m ettre</w>
in g
froi d</w>
for t</w>
f ête</w>
f illes</w>
f il
f en
eau x</w>
conn ais</w>
co û
cel ui</w>
b a
au tant</w>
arrê ter</w>
am i
achet é</w>
v as</w>
t ée</w>
sû r</w>
se ign
qu é</w>
pr u
pen sé</w>
p eu
nouv elle</w>
nour ri
mati n</w>
m ain</w>
l u</w>
l l
l ar
er r
enf ant</w>
em pl
déso lé</w>
deman de</w>
d a</w>
com prendre</w>
ch aque</w>
ca f
bl ement</w>
b at
atten tion</w>
ail le</w>
ad ore</w>
ac ci
F ran
écri t</w>
voul ait</w>
v é</w>
téléphon e</w>
tou r</w>
r a</w>
qui t
pro f
pri e</w>
premi er</w>
pe ine</w>
nourri ture</w>
n es</w>
médeci n</w>
mu si
mag a
m ot
m en
lors qu&apos;</w>
long temps</w>
l ait</w>
in ter
fr ère</w>
fin i</w>
ent endu</w>
en semble</w>
en seign
déjeu ner</w>
di x</w>
di tes</w>
devr ait</w>
ch at</w>
c le</w>
b eau</w>
am our
ai e</w>
accor d</w>
I n
v es</w>
v eill
u re</w>
travail ler</w>
tr an
soy ez</w>
si n</w>
s tr
s avez</w>
ri g
r é</w>
ques tions</w>
pri n
pres que</w>
premi ère</w>
pouv ons</w>
phot o</w>
p éri
n i</w>
mon tr
m at
li e</w>
l ent</w>
jou e</w>
habitu de</w>
gran de</w>
essay er</w>
entr e
e f
dét este</w>
col ère</w>
ch es</w>
ag es</w>
acci dent</w>
vi v
v él
v ois</w>
ui e</w>
th é
su jet</w>
st on</w>
si r</w>
s œur</w>
s éri
ren tr
re au</w>
r ê
pri t</w>
por t</w>
po n</w>
plu tôt</w>
o g
n is</w>
meill eur</w>
m ois</w>
m ent
jou er</w>
ill ez</w>
g ni
fa ti
ex ac
em ents</w>
d îner</w>
d ang
che veux</w>
ce p
caf é</w>
c eux</w>
c au
bu reau</w>
bl ess
b o
av ant
ap par
an ces</w>
am ie</w>
all ons</w>
Ja pon</w>
Bo ston</w>
é b
è mes</w>
u c
tu res</w>
tr ai
se cr
rou ge</w>
r om
qu a
prê t</w>
pos e</w>
pi e
occup é</w>
n ager</w>
min u
mi r</w>
lu n
laiss er</w>
l ée</w>
l eurs</w>
in s</w>
in for
hu m
g é</w>
fati gu
f au
eu ses</w>
es père</w>
en ir</w>
con fi
ch ance</w>
ca r</w>
c ent</w>
b les</w>
b elle</w>
b an
avant age</w>
a te</w>
a sse</w>
écri re</w>
vi t</w>
vi n</w>
tou r
ter min
t ellement</w>
ss i
som m
ser ait</w>
san té</w>
ren d</w>
regar der</w>
regar de</w>
pré sent
pou voir</w>
pl uie</w>
pl eur
ph ra
pass er</w>
parti e</w>
p ê
ouver t</w>
oubli é</w>
ou i</w>
n oir</w>
mal ade</w>
m i</w>
li eu</w>
in vi
im médi
im ag
fu mer</w>
fi t</w>
f ou
f ils</w>
es pa
de hors</w>
cu ri
comp te</w>
chemi n</w>
ca ss
c œur</w>
c am
au t
appel er</w>
a tions</w>
D i
vél o</w>
vi eux</w>
veu illez</w>
ver s
ven us</w>
t ées</w>
t el</w>
si ne</w>
res ter</w>
r u
r ez</w>
r endre</w>
pui sse</w>
pu bli
prof ess
probl èmes</w>
pri x</w>
po s</w>
pla n</w>
pla ce</w>
pl ai
pa ble</w>
or di
on c</w>
mani ère</w>
main s</w>
lang ues</w>
laiss é</w>
la quelle</w>
l av
int el
intel li
im porte</w>
habi te</w>
gr o
g en
f ac
entre prise</w>
du r</w>
dor mir</w>
dev ez</w>
d uit</w>
d avantage</w>
ca tion</w>
c ré
av i
ar ti
ap pris</w>
an née</w>
am our</w>
al ors</w>
ain si</w>
a di
Fran ce</w>
D an</w>
vi r
ti que</w>
ti f</w>
t ons</w>
t elle</w>
sti tu
st ant</w>
si tu
ser ais</w>
s ée</w>
s ement</w>
ré u
ri ère</w>
ri e</w>
ri che</w>
res pon
rencontr er</w>
qua tre</w>
pour riez</w>
por tant</w>
pl an
peu vent</w>
pen sez</w>
pay er</w>
parl ez</w>
p re</w>
nouv elles</w>
nom br
n éc
mot s</w>
mar ché</w>
mar che</w>
mang é</w>
m ents</w>
lo t</w>
j u
heur euse</w>
g o
f ont</w>
f eu</w>
ex péri
ex am
ent endre</w>
en vie</w>
en nu
dis cu
dev riez</w>
der rière</w>
d onc</w>
con que</w>
cin q</w>
ch ar
c an
b on
b e</w>
att endre</w>
am is</w>
ai res</w>
ai mes</w>
ag i
A n
ér o</w>
è rement</w>
ç ons</w>
voud rais</w>
vi sion</w>
ven ue</w>
v ac
u t</w>
tr om
tr ap
ti é</w>
ti n
ti ent</w>
t i</w>
su ffi
sem bl
s tes</w>
res t
r ob
r ai</w>
profess eur</w>
proch ain</w>
pro pos</w>
pren d</w>
pouv ait</w>
po pu
po m
pl eu
néc ess
musi que</w>
mi di</w>
mang e</w>
maga sin</w>
m et
le il</w>
laiss ez</w>
l è
immédi at
immédiat ement</w>
i gno
igno re</w>
h or
g én
fr app
fen être</w>
fatigu é</w>
fai m</w>
fa çon</w>
exac tement</w>
ex pli
eu sement</w>
e b
donn er</w>
cr oi
con si
com man
chau d</w>
c tionn
c al
bou lot</w>
bi ère</w>
b us</w>
b res</w>
b as</w>
at trap
appréci e</w>
am us
am ment</w>
all ait</w>
ac cep
C h
éti ez</w>
é vi
é pou
ç u</w>
â ge</w>
vi s
ver re</w>
vac ances</w>
uni on</w>
télé vision</w>
tr ad
t y
t ent
t ats</w>
sû re</w>
ser vi
ser ai</w>
s ac
ré fl
ress em
r api
pon ais</w>
poli ce</w>
par lé</w>
p é
p ain</w>
ouv rir</w>
o t</w>
o eb
oeb a</w>
nécess aire</w>
mon tre</w>
mi t</w>
mer ci</w>
mau vais</w>
m é</w>
m ets</w>
l le</w>
j et
j a
in di
im portant</w>
g â
fil m</w>
fer ai</w>
f us
f o
ex is
es p
err eur</w>
er ait</w>
endr oit</w>
end ez</w>
e ff
déso lée</w>
dé r
donn ez</w>
dev rions</w>
derni er</w>
d enti
d an
condui re</w>
con v
commen cé</w>
cher che</w>
certain s</w>
at oeba</w>
an ni
an i
amour eux</w>
ag ne</w>
ac cu
T atoeba</w>
ô le</w>
éb é</w>
é qui
è ne</w>
voul ons</w>
voi ci</w>
utili ser</w>
ter re</w>
ter n
ten tion</w>
sé curi
sécuri té</w>
suc re</w>
su l
stu pi
situ ation</w>
s av
s ai
ré union</w>
ré par
rou te</w>
ret our
pro dui
pr ouv
pouv ais</w>
pos i
pos er</w>
pi ta
pi re</w>
pi an
pers onnes</w>
pe in
n ei
mau v
ma tion</w>
li ez</w>
lai re</w>
in tention</w>
in stant</w>
hom mes</w>
h é
h ai
gén ér
g ui
g e
f s</w>
expéri ence</w>
ex cu
essay é</w>
ess aie</w>
en voy
en d</w>
en ces</w>
di rec
dev ant</w>
cui sine</w>
cr oy
cor rec
conna ît</w>
com pris</w>
cl asse</w>
ci eux</w>
ci er</w>
ci el</w>
choi x</w>
chemi se</w>
ch ats</w>
ca pable</w>
c ô
c ès</w>
c elle</w>
bou t</w>
bou t
b ébé</w>
b â
b or
b oire</w>
ass i
arriv er</w>
ang e</w>
T erre</w>
M .</w>
Di eu</w>
A méri
î tre</w>
î te</w>
ë l</w>
étrang er</w>
ét oi
équi pe</w>
él è
é cu
è tement</w>
è que</w>
â mes</w>
viendr a</w>
v ê
tél é</w>
ten ir</w>
t oy
t or
sup pose</w>
su s</w>
ss on</w>
sou viens</w>
sou hai
sor te</w>
ser v
ser ez</w>
s y
s su
s el
s avait</w>
ré si
ré ali
ri re</w>
rest aur
restaur ant</w>
ressem ble</w>
res pec
rencontr é</w>
regar d
r endu</w>
pré par
pro pre</w>
posi tion</w>
per dre</w>
pen ser</w>
par fois</w>
par a
pa gne</w>
ordi nat
onn é</w>
ob j
o ff
nu m
num éro</w>
n ent</w>
n al</w>
mo y
minu tes</w>
man qu
li bre</w>
l et
imag in
im port
ill é</w>
il ement</w>
hô tel</w>
gar çons</w>
g a
for ts</w>
ent ôt</w>
em br
em and</w>
el s</w>
déci dé</w>
dr oit</w>
dr oi
de au</w>
d ement</w>
cui sin
cour ant</w>
confi ance</w>
con c
ci r
cau se</w>
c en
bo îte</w>
bi entôt</w>
b es</w>
b ar
aut ori
au rait</w>
att end
an n
am éli
all emand</w>
ain es</w>
N o
étudi ants</w>
éri eur</w>
é p
â tre</w>
â che</w>
x i
visi te</w>
veill é</w>
v aut</w>
v a
trav ers</w>
tran s
tomb er</w>
sur pris</w>
sui te</w>
so l</w>
so ci
si x</w>
si té</w>
si ons</w>
s me</w>
s en
réfl éch
res te</w>
r er</w>
r ai
pro ba
proba blement</w>
pren ez</w>
pr ête</w>
pr endr
pos te</w>
poi sson</w>
pita l</w>
pian o</w>
par viens</w>
p le</w>
ordinat eur</w>
op in
occup ée</w>
o k
o h
nom bre</w>
n er
mon t
mi gn
m oi
lu mi
ir ai</w>
in stitu
im pres
ili té</w>
ign or
i di
hô pital</w>
h onn
h on
gro sse</w>
gr os</w>
gno l</w>
gen re</w>
gar de</w>
g ie</w>
fu rent</w>
fl eurs</w>
fai sons</w>
fac ilement</w>
ex i
espa gnol</w>
es prit</w>
empl oi</w>
emp ê
dispos e</w>
dang er
d ents</w>
con t
con f
compl ètement</w>
com prends</w>
co pi
cher ch
chang é</w>
ch ap
c é
c li
c lai
bu t</w>
bal l</w>
as su
arrê té</w>
ari s</w>
appel é</w>
an tes</w>
améli or
ag ent</w>
P aris</w>
œ il</w>
ê tres</w>
ê t</w>
ég alement</w>
è de</w>
z e</w>
w e
vo lon
vi enn
veu lent</w>
vers aire</w>
v ing
us tr
ui re</w>
ty pe</w>
trom p
ti mi
termin é</w>
ten te</w>
ten nis</w>
ta x
t ait</w>
t aille</w>
sui v
so lu
so leil</w>
si eurs</w>
sel on</w>
secr et</w>
se con
sci enti
scienti fi
sav ent</w>
sa c</w>
s on
ré sou
ri s
res se</w>
rentr er</w>
re voir</w>
r ée</w>
r ap
pré si
pro duit</w>
pro che</w>
plu sieurs</w>
pa pi
pa n
ot h
opin ion</w>
oi vent</w>
oi s
oi e</w>
nombr eux</w>
nei ge</w>
moin dre</w>
moi tié</w>
mari er</w>
mar cher</w>
man teau</w>
man che</w>
lon g</w>
l ou
ja ponais</w>
j oin
ill age</w>
il li
i que</w>
gâ teau</w>
gr ou
ga re</w>
g éni
g au
fer a</w>
fem mes</w>
fa sse</w>
fa ce</w>
exam en</w>
dé sor
dé si
dé s
dé li
dor t</w>
discu ter</w>
des sus</w>
de venu</w>
d ol
d ess
cô té</w>
conse ils</w>
con tent</w>
comm ence</w>
com pa
cl és</w>
chau ssu
chap eau</w>
bli oth
bless é</w>
bi z
bi blioth
b ag
atten d</w>
arri ère</w>
ar me</w>
ar di
anni versaire</w>
all ée</w>
agi t</w>
af fai
ad resse</w>
ad mi
a k
No ël</w>
A p
1 0</w>
étudi er</w>
ér er</w>
én er
écou ter</w>
é tions</w>
É tats</w>
voul oir</w>
voi tures</w>
vo l
vi ère</w>
vi eil</w>
vi dé
v is</w>
ustr ali
tu er</w>
trav er
thé âtre</w>
thé ori
théori e</w>
ten u</w>
t e
suffi s
suc cès</w>
stupi de</w>
stu me</w>
somm eil</w>
senti ments</w>
répon dre</w>
ré v
ri vière</w>
respon s
re venir</w>
rapi dement</w>
r o
r el
r ant</w>
pui ss
préfér ée</w>
préf ère</w>
pr on
pron on
pr eu
pou ss
port ait</w>
po l
plu part</w>
pleur er</w>
pl eut</w>
pie ds</w>
pie d</w>
phra se</w>
pau vre</w>
par ti</w>
p s</w>
ouver te</w>
o ï
o ti
n or
n et
mauv aise</w>
mar i</w>
man que</w>
m ée</w>
m am
lun ettes</w>
lumi ère</w>
lar s</w>
l is</w>
jam bes</w>
j eu</w>
institu teur</w>
infor mation</w>
in qui
g ue</w>
g er</w>
fi e</w>
fai sait</w>
f our
f ou</w>
f erais</w>
ex pl
esp ér
er min
er as</w>
entr er</w>
enseign ant</w>
en vir
embr ass
ei n</w>
e in
désor mais</w>
dé cl
dor mi</w>
dol lars</w>
dis cours</w>
di st
dev in
de voir</w>
danger eux</w>
d om
ctionn aire</w>
con str
con st
con sci
con cer
commen cer</w>
co stume</w>
ci té</w>
chaussu res</w>
chang er</w>
ch ante</w>
car te</w>
c tu
c ti
c lé</w>
biblioth èque</w>
bal le</w>
b ons</w>
b ois</w>
b ai
ay la</w>
ay ez</w>
au tom
at h
ain s</w>
ai ses</w>
af faire</w>
ab les</w>
ab an
U nis</w>
O h</w>
L ayla</w>
A ustrali
A l
2 0
. .</w>
. ..</w>
él ec
é v
voy ez</w>
ving t</w>
vienn ent</w>
viendr ai</w>
vi ol
vi eille</w>
v ont</w>
v illage</w>
v end
u els</w>
tri bu
trad uc
ti nu
ti ment</w>
ti en</w>
t ais</w>
t aire</w>
suffis amment</w>
su s
soci été</w>
si è
si onn
si gni
ser ont</w>
sau f</w>
s il
sil en
s ati
sati s
réu ssi</w>
résou dre</w>
ren contre</w>
regar dé</w>
re ti
re fus
ra con
r endez</w>
r appeler</w>
quel les</w>
quel conque</w>
qu oti
quoti di
pê cher</w>
pu l
pru n
proch aine</w>
pro jet</w>
prin temps</w>
pr ess
pr ati
poi ds</w>
po in
pl ein</w>
phra ses</w>
pers onn
pati ence</w>
para pluie</w>
papi er</w>
ou x</w>
on d
on cle</w>
obj ec
o l</w>
o bli
net toy
n ez</w>
mor ce
montr er</w>
mont agne</w>
meill eure</w>
mari é</w>
mal adi
m illi
m es
li se</w>
le vé</w>
le quel</w>
l ég
l é
l an
jour nal</w>
j ardi
intelli gent</w>
intelli g
int érieur</w>
im pli
il ler</w>
hi ver</w>
h ér
h uit</w>
gu erre</w>
grou pe</w>
g enti
g ent
fr on
f ri
f all
fall u</w>
entr ée</w>
end or
em prun
em ment</w>
em b
ef forts</w>
e riez</w>
e illes</w>
dét ermin
dét ail
diffi cul
di pl
di manche</w>
di ctionnaire</w>
deman der</w>
de venir</w>
dang er</w>
conna ître</w>
conn u</w>
cin é
ci en</w>
chan son</w>
ch in
cert ain</w>
ca l</w>
ca deau</w>
c y
c api
bl an
b u</w>
b er
av enir</w>
av ance</w>
au tour</w>
at ti
ar t</w>
appel ez</w>
an im
ami es</w>
all és</w>
ali té</w>
al lu
affai res</w>
a î
a fin</w>
J oh
In tern
E x
C on
A r
1 9
œu fs</w>
û t</w>
étrang e</w>
étoi les</w>
ét at</w>
épou ser</w>
éc u</w>
é con
écon om
è g
we e
wee k</w>
vê t
vêt ements</w>
voy ager</w>
voud riez</w>
voi là</w>
vis age</w>
vidé o</w>
vi vent</w>
ver sité</w>
v écu</w>
v eau</w>
v ali
us ée</w>
tu é</w>
travail lé</w>
travail l
tran qu
tr on</w>
tr em
tomb é</w>
ti ve</w>
ta li
ta bl
t é
t ot
t eaux</w>
sui vre</w>
ss ion</w>
somm et</w>
so l
sin s</w>
se p
sci ne</w>
san g</w>
s oin</w>
rê tez</w>
répon se</w>
ré s</w>
ré s
rob e</w>
res té</w>
re çu</w>
re join
re gr
re fu
re di</w>
re cherche</w>
rai sons</w>
ra di
r on
r i</w>
r appelle</w>
r am
r ac
qui conque</w>
qu ée</w>
qu ement</w>
prê ter</w>
prési dent</w>
préfér é</w>
pré sent</w>
pro pr
propr es</w>
pro position</w>
pro b
pren nent</w>
pr ot
por té</w>
por tes</w>
pon ctu
pom mes</w>
pleu voir</w>
pl ain
pi scine</w>
pen d</w>
pay é</w>
pau se</w>
pati ent</w>
parl ent</w>
par o
par c</w>
pa p
oubli e</w>
on g
oc teur</w>
oc ca
o se</w>
o s
n s</w>
n ement</w>
moy en</w>
mou rir</w>
mi enne</w>
met tez</w>
man quer</w>
m ét
m our
m et</w>
m arr
lè ve</w>
lun di</w>
ll em
le çon</w>
la c</w>
l s</w>
l our
jeu nes</w>
jardi n</w>
j o
j eux</w>
intéress ant</w>
in v
im possible</w>
idi ot</w>
i ons</w>
hum eur</w>
hon te</w>
h aut</w>
h ab
gu es</w>
gau che</w>
gag ner</w>
fin alement</w>
fer me</w>
f eu
exis te</w>
es ti
es ses</w>
err eurs</w>
envoy é</w>
ent end
enn em
déci sion</w>
déc ouvert</w>
dé pend</w>
du re</w>
dr a</w>
donn a</w>
dis pu
dan ser</w>
d octeur</w>
cr oit</w>
cour ag
cou pe</w>
correc tement</w>
cor rig
conv ain
conse il</w>
con di
com pli
co ol</w>
ci de</w>
choi sir</w>
chan ter</w>
ch on</w>
c ée</w>
c oin</w>
c k
c h</w>
c esse</w>
c ents</w>
bâ timent</w>
br û
biz ar
bat eau</w>
bai ser</w>
b ill
au g
attrap é</w>
att ends</w>
at ta
arr ête</w>
arr ass
ap parti
ann ées</w>
anim aux</w>
an e</w>
aim é</w>
aim ait</w>
ai es</w>
ad or
ach es</w>
ac tu
ab or
Australi e</w>
Ar rêtez</w>
A llem
3 0</w>
0 0</w>
œu f</w>
étudi ant</w>
ét age</w>
éni ent</w>
én or
él e
écu r
écur eu
éch ou
è le</w>
â le</w>
y si
y o</w>
w i
vrai e</w>
voi rs</w>
vi ons</w>
vi de</w>
vend redi</w>
ven ait</w>
v endre</w>
v ement</w>
v al</w>
uti le</w>
u l
tranqu ille</w>
tou che</w>
timi de</w>
ter ai</w>
ter a</w>
tax i</w>
ta tion</w>
t âche</w>
t ar
t al
séri eux</w>
sé par
ss ent</w>
sou ff
sor s</w>
son ge</w>
sol d
sim ple</w>
si gne</w>
servi ce</w>
ser as</w>
sep t</w>
sem aines</w>
scientifi que</w>
san d
sand wi
sal le</w>
sa che</w>
s pé
s ard</w>
réfléch ir</w>
ré sul
rom an</w>
ri t</w>
ri er</w>
retour ner</w>
respons able</w>
rem pl
re venu</w>
re pas</w>
rap port</w>
radi o</w>
r èg
r ue</w>
r hu
r ar
présent er</w>
pru d
prom en
produi re</w>
prin ci
preu ve</w>
prendr ai</w>
pos é</w>
pos s
por table</w>
pom me</w>
po ir</w>
pl age</w>
ph ysi
per te</w>
per d
parl ait</w>
par tout</w>
par avant</w>
pa tron</w>
p é</w>
p es</w>
oy er</w>
ouver nement</w>
ot ball</w>
ori g
op ér
ok yo</w>
oi si
occa sion</w>
obli g
ni que</w>
n eu
n age</w>
morce au</w>
mor al</w>
mon di
mi ssion</w>
mer veill
mati ques</w>
mari age</w>
mar re</w>
mam an</w>
mal heur
maga z
m ille</w>
m ess
m enti
lu tion</w>
lor s</w>
li èrement</w>
let erre</w>
le ver</w>
le v
lav er</w>
lar mes</w>
lai res</w>
l at
l am
k il
jou é</w>
jo lie</w>
intér êt</w>
in str
in f
in conv
inconv énient</w>
il la</w>
i er</w>
ha sard</w>
h â
h eur</w>
gr at
gni e</w>
gag ne</w>
g é
g ouvernement</w>
g li
g leterre</w>
for me</w>
fo otball</w>
fi cation</w>
fer mer</w>
fen êtres</w>
fai te</w>
expli quer</w>
et é</w>
espa ce</w>
es poir</w>
er ci
ennu is</w>
ennem i</w>
embrass er</w>
em bre</w>
ein dre</w>
eff et</w>
ec s</w>
e rie</w>
e ine</w>
détail s</w>
déc ouvrir</w>
dé tr
dé part</w>
dé f
dé but</w>
dé b
dispos ez</w>
dis ent</w>
différ ent</w>
di cu
dev int</w>
deman da</w>
dem i</w>
d oivent</w>
d ez</w>
cu sez</w>
cr u</w>
cr a
cor respon
cor ps</w>
copi ne</w>
convain c
cont ac
consi dé
con tinu
con tente</w>
compa gnie</w>
ch a</w>
cass é</w>
c ouver
c as</w>
bout eille</w>
bizar re</w>
b our
b onnes</w>
av is</w>
autom ne</w>
aug ment
au tr
au riez</w>
au paravant</w>
ati on
at eurs</w>
ass e
arti cle</w>
arriv ée</w>
arr og
ar bre</w>
apparti ent</w>
an nu
amélior er</w>
amour euse</w>
all ais</w>
al eur</w>
aim ez</w>
aim er</w>
ai ment</w>
ac é</w>
ac t
T okyo</w>
S al
N e
Joh n</w>
Intern et</w>
Ex cusez</w>
E ur
An gleterre</w>
Améri que</w>
A h</w>
ô tre</w>
ô mes</w>
évi ter</w>
étudi e</w>
ét an
ér ence</w>
éner gie</w>
ég lise</w>
éch ec</w>
éc lat
è se</w>
x ante</w>
voi e</w>
viv ant</w>
visi ter</w>
vi té</w>
ven ez</w>
v ues</w>
uni versité</w>
uni vers</w>
ui ts</w>
u el</w>
tr ente</w>
tr a
ti n</w>
th é</w>
ter ri
ter ais</w>
ten ce</w>
ta sse</w>
ta le</w>
t h</w>
t aine</w>
sy m
sup pl
suppl é
sui ci
su g
sug g
st y
st ation</w>
spé ci
soy ons</w>
souv enir</w>
sou ci</w>
sor tes</w>
solu ment</w>
soi xante</w>
soi f</w>
so lu</w>
so li
si te</w>
si b
seu ls</w>
sem bles</w>
s pi
s pagne</w>
s our
s onn
s oi</w>
s ation</w>
s ante</w>
s age</w>
répar er</w>
ré veillé</w>
ré qu
ré p
ré jou
réjou is</w>
ré g
règ les</w>
ru m
ri dicu
rhu me</w>
ress our
res si
rencontr ée</w>
re faire</w>
re connaiss
re comman
rar ement</w>
r ôle</w>
r ends</w>
quit ter</w>
publi c</w>
prépar er</w>
pré s
prot ég
prob able</w>
pro pri
pro fon
princi pa
pr êtes</w>
pou le</w>
pos sib
port ée</w>
popu l
poli tique</w>
pol i</w>
plan ète</w>
plai sir</w>
pi erre</w>
phot os</w>
peti tes</w>
per mis</w>
pass ée</w>
par t
par les</w>
pap a</w>
p én
p âle</w>
ouv rez</w>
op é
onn ement</w>
om age</w>
oi res</w>
off en
occup er</w>
occu pe</w>
o r</w>
o pe</w>
o ca
nu lle</w>
nouv el</w>
nombr euses</w>
nettoy er</w>
ner veux</w>
nat ure</w>
n ag
mou tons</w>
montr ez</w>
minu te</w>
mi th</w>
mess age</w>
mes ure</w>
mat hé
malheur eusement</w>
maladi e</w>
m usée</w>
m ez</w>
m eu
m ai
m age</w>
lé gu
li ste</w>
li gn
li er</w>
le c
lai ent</w>
l y
l oi</w>
l o</w>
l es
k o</w>
ju g
jou ets</w>
invi té</w>
intéress é</w>
inqui ète</w>
ing éni
import antes</w>
imagin er</w>
imag ine</w>
i ez</w>
i dé
hor ri
honn ête</w>
hom as</w>
h au
gran des</w>
go û
gn er</w>
gli ss
gi ques</w>
gent il</w>
gar der</w>
gag né</w>
g érer</w>
g or
g es</w>
g ence</w>
fr ères</w>
fr uits</w>
fr omage</w>
fr ay
four ni
for ce</w>
feu illes</w>
fau te</w>
f réqu
excu ses</w>
ex tr
eu s</w>
eu e</w>
et tez</w>
es su
er t</w>
ent ends</w>
ennu y
enf ance</w>
endr a</w>
en g
empê cher</w>
em porter</w>
ef fray
e vi
e rions</w>
e fois</w>
décl ar
déci da</w>
du rant</w>
droi ts</w>
droi te</w>
dou che</w>
dou ble</w>
dis ait</w>
direc tion</w>
difficul tés</w>
de voirs</w>
de vient</w>
d aire</w>
cy cl
cuisin er</w>
cr o
coû te</w>
coû t</w>
cour t</w>
cour age</w>
coup le</w>
cou rir</w>
cou cher</w>
corrig er</w>
correspon d
contr at</w>
consi dér
conn ai
con tribu
con sac
comp ter</w>
commen ça</w>
comm uni
comm ent
clai rement</w>
ciné ma</w>
chi ens</w>
cher cher</w>
char ge</w>
chan ceux</w>
chan c
ch u
certain es</w>
cert aine</w>
cal me</w>
ca che</w>
c s</w>
c lu
c les</w>
bri ll
blan c</w>
bi cycl
bat tre</w>
b oit</w>
av oca
au rions</w>
ati ve</w>
at eur</w>
asse oir</w>
arriv ent</w>
ar bres</w>
appar eil</w>
an ti
an c
al cool</w>
ai l</w>
ai gn
ai der
admi re</w>
ad mis</w>
ad er</w>
accu sé</w>
accep ter</w>
ac ti
ab solument</w>
ab ilité</w>
a jou
a ffi
a ff
U ni
U S
T homas</w>
S mith</w>
J ane</w>
E spagne</w>
D é
Améri c
Allem agne</w>
étoi le</w>
étan g</w>
ét er</w>
éri e</w>
énor me</w>
élè ves</w>
élè bre</w>
éli ci
él u</w>
ég al</w>
écureu ils</w>
écri s</w>
éch app
é veillé</w>
é pui
é pi
é cra
è vre</w>
è tes</w>
è ce</w>
â ce</w>
z on
z o
zo o</w>
y é</w>
vrai ent</w>
voul u</w>
voud rait</w>
volon té</w>
voi sins</w>
vo lution</w>
vi enne</w>
ver se</w>
ver rai</w>
v és</w>
v us</w>
v oit</w>
v endu</w>
v el
vel op
v aches</w>
ur gence</w>
uni que</w>
ui ss
u m</w>
tu r</w>
trouv er
trem bl
trai té</w>
trad uire</w>
tot alement</w>
tor t</w>
tomb ée</w>
tionn é</w>
ti ques</w>
ti me</w>
ti ens</w>
ten ez</w>
tabl eau</w>
ta lie</w>
t èrent</w>
t oi
t o
t ex
t ap
t an
sus pec
sur prise</w>
supplé ment
sup er</w>
suiv i</w>
suici dé</w>
suffi t</w>
su per
sty lo</w>
st at
st ance</w>
ssi ez</w>
ss ez</w>
souhai te</w>
sou tien</w>
sou ri
sou p
sou d
sou ci
sorti e</w>
sor t</w>
sold ats</w>
soi rée</w>
silen cieux</w>
signi fie</w>
si enne</w>
serv i</w>
senti r</w>
sent i</w>
sent ez</w>
sembl ez</w>
satis fait</w>
sandwi ch</w>
sal aire</w>
sai sir</w>
s és</w>
s ées</w>
s port</w>
s k
s el</w>
s avons</w>
réu ss
résul tats</w>
répon du</w>
réfléch i</w>
réali ser</w>
ré solu</w>
ré gu
ré es</w>
ré ellement</w>
rum eur</w>
ri ches</w>
ri bu
ret our</w>
ressour ces</w>
respec ter</w>
res tée</w>
rencontr és</w>
rem ède</w>
rem er
remer cier</w>
rejoin dre</w>
regard ez</w>
re l</w>
ran ce</w>
r us
r ont</w>
r end
r ay
r app
r ag
quit té</w>
qu és</w>
qu in
prê ts</w>
pré venu</w>
prouv e</w>
prom ettre</w>
prom esses</w>
prom esse</w>
pri son</w>
pr end
possib ilité</w>
pos ter</w>
popul ation</w>
popu laires</w>
popu laire</w>
po che</w>
pl u</w>
pl ait</w>
pi que</w>
physi que</w>
peu ple</w>
peti ts</w>
pass ez</w>
pass e
par la</w>
par fait</w>
pa t
pa rie</w>
pa ge</w>
p ai
ouv rit</w>
oubli ez</w>
orig in
ordi n
ordin aire</w>
or k</w>
or g
or d
onn er</w>
ol o
ol le</w>
ol i</w>
ois eau</w>
oi se</w>
occup és</w>
objec tif</w>
o leil</w>
o de</w>
no cent</w>
ni veau</w>
ni té</w>
neu f</w>
n ation
n aiss
n a</w>
mé tr
mon ie</w>
mign onne</w>
mi en</w>
meu bles</w>
men songe</w>
mati ère</w>
mathé matiques</w>
mari és</w>
mar teau</w>
mar ch
magaz ine</w>
ma j
m y
m oire</w>
m ili
lon gues</w>
li n</w>
li gne</w>
let tres</w>
jam be</w>
j oli</w>
j e
is te</w>
inv ent
inter dit</w>
indi quer</w>
in ées</w>
in nocent</w>
in i
in g</w>
in es</w>
in dé
in a</w>
impres sionn
impres sion</w>
import ante</w>
il o
i m</w>
hér os</w>
hâ te</w>
hum our</w>
h y
génér ation</w>
gu er
gran ds</w>
gr é</w>
gr âce</w>
gor ge</w>
ge ons</w>
gar s</w>
g ri
g ou
g l
fu tur</w>
fu me</w>
froi de</w>
fr ais</w>
fou le</w>
for te</w>
fon ctionn
fon cti
foncti onne</w>
fi é</w>
fi x
fer mé</w>
fai ts</w>
f us</w>
f olle</w>
f oi</w>
f eriez</w>
f ant
expl o
exis tence</w>
ex emp
evi ne</w>
eur re</w>
espér ant
espérant o</w>
er n
envoy er</w>
envir on</w>
entr é</w>
entr et
enseign er</w>
enn es</w>
en tou
en tes</w>
en fin</w>
emb arrass
ec te</w>
e int</w>
e a</w>
détr uit</w>
dér ange</w>
déci der</w>
déc é
dé çu</w>
dou leur</w>
donn ée</w>
dist ribu
dis par
dipl om
différ ence</w>
di v
di rait</w>
di rai</w>
des c
deman d
d èle</w>
d us</w>
d os</w>
d o
d ate</w>
cul ture</w>
croy ez</w>
croi ent</w>
cri se</w>
cri me</w>
cr av
crav ate</w>
coû ts</w>
coup é</w>
cou teau</w>
cor de</w>
conse illé</w>
consci ence</w>
connaiss ez</w>
connaiss ait</w>
connai sse</w>
concer t</w>
con stitu
con duit</w>
com pos
com porte</w>
col li
col at</w>
co u</w>
co pain</w>
co chon</w>
clai r</w>
ck et</w>
ci les</w>
ci ble</w>
cho colat</w>
cher ches</w>
che val</w>
chau ff
chau de</w>
chan t
cham p</w>
ch ac
chac un</w>
certain ement</w>
car tes</w>
car act
cam pagne</w>
c élèbre</w>
c tion</w>
c t
c ot
c entre</w>
c elles</w>
c ap
br as</w>
bon jour</w>
bon heur</w>
bl on
bl eu</w>
bicycl ette</w>
bi en
ban des</w>
ba se</w>
b é
b eurre</w>
b att
avoca t</w>
avi ons</w>
av aient</w>
autr efois</w>
aur ai</w>
attrap e</w>
att endu</w>
ass é</w>
arrê t</w>
ar chi
ar a
appel l
ap prends</w>
ap er
ani mal</w>
amus er</w>
amus ant</w>
am bi
ali ments</w>
al liez</w>
ag ue</w>
ag ressi
ad di
ab s
a cide</w>
Y ork</w>
Sal ut</w>
S oleil</w>
Q uels</w>
Ne w</w>
M on
M i
L in
I talie</w>
Eur ope</w>
D evine</w>
C or
C an
œu rs</w>
û mes</w>
ô me</w>
î mes</w>
étudi ante</w>
étu de</w>
éti t</w>
ét ant</w>
ét aire</w>
ér é</w>
ér o
éro port</w>
ér il</w>
én om
énom ène</w>
éli bat
élibat aire</w>
él oi
ég oï
économ ie</w>
éclat a</w>
éc ar
é po
épo que</w>
é or
éor olo
é di
é an</w>
â me</w>
â ché</w>
z z
y ez</w>
xi ème</w>
w a</w>
véri table</w>
vou liez</w>
vol ant</w>
voi x</w>
vo lé</w>
vo leur</w>
visi ons</w>
vi t
vi ez</w>
vi end
veu illes</w>
vers ation</w>
ver rou
ven ues</w>
ven iez</w>
va se</w>
v ée</w>
v écu
v il
v eille</w>
v an
utili sé</w>
utili sez</w>
utili se</w>
u rel</w>
u c</w>
tu n
tu de</w>
trouv eras</w>
trouv ent</w>
trouv ait</w>
tri ste</w>
tri ce</w>
traver ser</w>
travail les</w>
trai ter</w>
trai te</w>
traduc tions</w>
traduc tion</w>
tr uc</w>
tr ou
tr oisi
troisi ème</w>
tr ez</w>
tr adi
tou ri
tou ché</w>
tou cher</w>
tomb e</w>
tionn el</w>
tin ation</w>
ti re</w>
ti cket</w>
ti ce</w>
terri blement</w>
termin er</w>
tent é</w>
ten ait</w>
ta tions</w>
ta re</w>
t une</w>
t oit</w>
t es
t end
tend ance</w>
t ants</w>
t ante</w>
t anni
t ain</w>
t ail
sû rement</w>
séri eusement</w>
séri e</w>
sé ché</w>
sy st
syst ème</w>
sup porter</w>
suiv ant</w>
sugg ère</w>
su ader</w>
sti que</w>
ss es</w>
ss age</w>
sou rire</w>
sou l
soul ag
sor tez</w>
som bre</w>
solu tion</w>
so ph
soph ie</w>
silen ci
si eur</w>
ser ver</w>
ser t</w>
sen sé</w>
sembl ant</w>
sembl ait</w>
secr ets</w>
secon de</w>
se riez</w>
scientifi ques</w>
sau ver</w>
sal ade</w>
sa ou
s por
s pec
s ex
s c
s ain</w>
rés il</w>
répon ds</w>
réali té</w>
ré pan
ré gi
ré f
ré dui
ré di
ré col
rus se</w>
rom ettez</w>
ris ques</w>
ris que</w>
ri z</w>
ri s</w>
ri deau</w>
res tez</w>
res tes</w>
rem ettre</w>
rem ar
rel i
regar d</w>
reconnaiss ante</w>
re présent
re ce
rapi de</w>
racon ter</w>
r ons</w>
r eur</w>
r appelez</w>
r age</w>
quit te</w>
quin ze</w>
qu eue</w>
qu ar
pén étr
puiss ance</w>
pui ssiez</w>
publi que</w>
pu ni</w>
préfér erais</w>
pré vu</w>
pré vois</w>
prud ente</w>
pru dent</w>
protég er</w>
pronon cer</w>
prom ets</w>
profon de</w>
prof es
produi ts</w>
pro xi
pro pos
pro j
pro gr
pro f</w>
prin cesse</w>
pri vé</w>
pri ses</w>
pres sion</w>
prendr a</w>
pr enti
prenti ssage</w>
pour vu</w>
poss ède</w>
pos tale</w>
port ent</w>
por tu
por tement</w>
ponctu el</w>
po ème</w>
plai sante</w>
pl eure</w>
piè ces</w>
pi zz
ph énomène</w>
ph ilo
philo sophie</w>
perd ue</w>
per mission</w>
per mettre</w>
pen sent</w>
pein ture</w>
pe int</w>
pe au</w>
passe port</w>
parti cu
parti ci
paro le</w>
parl ons</w>
par s</w>
par mi</w>
par fai
parfai tement</w>
p y
p us</w>
ou ons</w>
ot tes</w>
ord res</w>
or dre</w>
or ange</w>
opé enne</w>
ond res</w>
on z
on ique</w>
ol es
ois eaux</w>
oi te</w>
oc éan</w>
obj ets</w>
o li
o le</w>
o gr
nu l</w>
no yé</w>
no te</w>
ni er</w>
nation ale</w>
nat urel</w>
naiss ance</w>
n ôtre</w>
n ég
n ot
n oi
mê mes</w>
métr o</w>
mét éorolo
méri te</w>
médi cam
mé moire</w>
musi cien</w>
moy enne</w>
mon te</w>
mign ons</w>
mi se</w>
merveill eux</w>
menti r</w>
ment i</w>
men er</w>
mauv aises</w>
mati que</w>
mati ns</w>
marr on</w>
mal gré</w>
mag ni
ma î
ma tions</w>
m él
m è
m s</w>
m ouv
m ement</w>
m ecs</w>
légu mes</w>
ly cée</w>
long s</w>
lo gi
ll esse</w>
lign es</w>
les quelles</w>
l âche</w>
l ot
l ent
lent ement</w>
l abor
jus tice</w>
jou ent</w>
je an</w>
j oie</w>
j ette</w>
j al
ir a</w>
invi tés</w>
invi tées</w>
inter rom
intellig ente</w>
instr uc
ingéni eurs</w>
in ven
in te</w>
in sul
impli qué</w>
im um</w>
im patience</w>
im age</w>
i ère</w>
i denti
hy po
hum aine</w>
hu r
horri ble</w>
hor reur</w>
honn eur</w>
hi ne</w>
heur euses</w>
habitu é</w>
h i</w>
h en
h ar
génér alement</w>
génér al</w>
géni e</w>
gui tare</w>
gu er</w>
gou t
genti llesse</w>
gen oux</w>
gar age</w>
g la
g is
g as
gas p
fron ti
fran ch
franch ement</w>
for êt</w>
for tune</w>
for cé</w>
for cer</w>
fon d</w>
fo lie</w>
fin ir</w>
fil ms</w>
fi er</w>
fi dèle</w>
ff re</w>
fau tes</w>
fant ômes</w>
fam ili
fai sais</w>
fai ble</w>
f ous</w>
f leur</w>
f er</w>
f av
fav or
f aux</w>
f allait</w>
expli qu
expl oi
ex pri
ex erci
exerci ce</w>
ex cel
eu xième</w>
ess ez</w>
esp èce</w>
er ons</w>
envir onnement</w>
entr a</w>
enti er</w>
endr ai</w>
endor mi</w>
end om
empê ché</w>
emprun ter</w>
empl oy
eff ec
ec tion</w>
dét ec
dé pê
dé mé
dé goû
dou é</w>
dou te</w>
dor m
donn ées</w>
donn ent</w>
dom mage</w>
div or
direc teur</w>
différ ents</w>
différ ences</w>
di ses</w>
di se</w>
di rig
di ra</w>
di n
di able</w>
dev ait</w>
dess inées</w>
des tination</w>
de vraient</w>
de venus</w>
de l</w>
de bout</w>
d ot
d ons</w>
d euxième</w>
cul ation</w>
cu re</w>
cri tique</w>
cr ay
cr ain
coû té</w>
couver ture</w>
cour amment</w>
coup er</w>
cou teaux</w>
cou pable</w>
cou leur</w>
correc te</w>
contribu teur</w>
contr ôle</w>
contr ari
contac t</w>
constitu ent</w>
connaiss ance</w>
connaiss ais</w>
conn ue</w>
conf érence</w>
conf ec
condi tion</w>
conc entrer</w>
con versation</w>
con gé</w>
con for
compl et</w>
comman de</w>
comm un</w>
com portement</w>
col lec
cir culation</w>
cir const
ci toy
ci t</w>
ci fi
chin ois</w>
chau ss
chant euse</w>
chang e</w>
chanc euse</w>
chan teur</w>
chan sons</w>
ch ée</w>
ch ons</w>
ch aleur</w>
cen sé</w>
cau sé</w>
cass er</w>
caract ère</w>
capi taine</w>
can cer</w>
can ap
canap é</w>
cal cul
ca tions</w>
ca le</w>
c élibataire</w>
c arrière</w>
bu l
brû lé</w>
brill ante</w>
br uit</w>
br ou
bou ton</w>
bor del</w>
bless ée</w>
bless er</w>
bl o
bl essu
bill ets</w>
bill et</w>
beau té</w>
ban que</w>
bal eine</w>
b œuf</w>
ay ant</w>
avi ez</w>
av ion</w>
av an
augment é</w>
au té</w>
au teur</w>
attend ons</w>
attend ais</w>
att eint</w>
att eindre</w>
assu rance</w>
ass is</w>
ass es</w>
ar ds</w>
appel ée</w>
app étit</w>
ap prentissage</w>
ap prend</w>
ap porte</w>
ap pli
ann on
ang le</w>
ang es</w>
an ne</w>
an es</w>
an de</w>
ami cal</w>
am ant</w>
am a</w>
aim ée</w>
aim erait</w>
ai sé</w>
ag ir</w>
ad oles
ach ète</w>
ac er</w>
ac a
abor d</w>
aban donner</w>
ab sur
ab oie</w>
a éroport</w>
a wa</w>
a r</w>
a me</w>
Y ou
US A</w>
T r
S u
R e
P romettez</w>
P er
P ar
M S</w>
Lin da</w>
L ondres</w>
K ate</w>
Ja ponais</w>
J u
J ouons</w>
J im</w>
J e
In de</w>
H i
H a</w>
C ol
C hine</w>
Bo b</w>
B résil</w>
Améric ains</w>
A ss
5 0</w>
20 1
œu vre</w>
î tr
ê mement</w>
év ér
évér ance</w>
év è
étudi é</w>
étudi ent</w>
étu des</w>
étrang ers</w>
éti tion</w>
ét end</w>
ét eindre</w>
ét ag
étag ère</w>
ét a
éri c
ér u
ér ez</w>
ér at
érat ure</w>
épui sé</w>
épou sé</w>
ép ing
ép ais</w>
én é
élè ve</w>
élec tri
élec tr
électr onique</w>
éle vés</w>
él é
égoï ste</w>
ég alité</w>
ég age</w>
écri v
écou té</w>
écou tez</w>
écou tes</w>
écou te</w>
économ i
échou é</w>
éch ecs</w>
éc lai
éb arr
é volution</w>
é prouve</w>
é gar
égar d</w>
é du
è tre</w>
zon e</w>
z éro</w>
y th
y ot
yot o</w>
vécu t</w>
vr eté</w>
vr a</w>
vou lu
voulu t</w>
vou laient</w>
vou dr
volon taire</w>
volon t
vo ler</w>
vo l</w>
viv ez</w>
viv ants</w>
viv ait</w>
vit esse</w>
vir us</w>
vi ve</w>
vi es</w>
vi eill
vi cti
vi ct
vict oire</w>
vi ande</w>
ver res</w>
ven ons</w>
ven ge
velop pé</w>
v ég
v illes</w>
v ez</w>
v aleur</w>
v al
v aiss
v ague</w>
uti les</w>
us tri
us te</w>
us an</w>
ur é</w>
ur er</w>
ui tes</w>
ui te</w>
ui r</w>
ui n</w>
uc tion</w>
u res</w>
u ns</w>
u nes</w>
u n
u le</w>
u elle</w>
téléphon es</w>
té nu
té m
tém oin</w>
tun n
tunn el</w>
tu t</w>
tu eux</w>
trouver ez</w>
tromp er</w>
tro u</w>
tro le</w>
tribu nal</w>
trem blement</w>
travaill ons</w>
travail lais</w>
touri stes</w>
tour ner</w>
tour ne</w>
tour n
tomb a</w>
toi l
ti ves</w>
ti tre</w>
ti ne</w>
ti m
ti ll
ti endra</w>
th èse</w>
th er
tex te</w>
ter r
ter mi
termi ne</w>
ter me</w>
tent ation</w>
temp ête</w>
temp érature</w>
te ch
tar te</w>
tap is</w>
tan dis</w>
tal on</w>
tal ent</w>
ta tou
ta t</w>
ta bles</w>
t y</w>
t o</w>
t eurs</w>
t ecte</w>
t aux</w>
t as</w>
t am
sû rs</w>
sû res</w>
séri euse</w>
sé qu
séqu ences</w>
sé ment</w>
sé jour
sym bo
symbo le</w>
suspec te</w>
sur vivants</w>
sur er</w>
supplément aire</w>
super marché</w>
sup pos
suppos és</w>
su d</w>
su bi
su b
stupi des</w>
stat ue</w>
st ri
stri c
ssi ère</w>
ss ée</w>
ss ons</w>
ss ait</w>
spi r
spir ation</w>
spec t
souhai tez</w>
souhai ter</w>
souff le</w>
soud ain
soudain ement</w>
souci e</w>
sou tenu</w>
sou cier</w>
sorti s</w>
sor tons</w>
sor ti</w>
so laire</w>
siè ge</w>
siè cles</w>
siè cle</w>
situ e</w>
sionn el</w>
silenci euse</w>
signi fication</w>
si ve</w>
si t</w>
si ment</w>
si gn
si ez</w>
si este</w>
si e</w>
ser ve</w>
ser ré</w>
ser ons</w>
senti ment</w>
sent ait</w>
sen sible</w>
sembl ent</w>
se i
se cours</w>
sci ence</w>
sc ène</w>
sau v
sau ter</w>
sal on</w>
sac ré</w>
sa le</w>
sa k
s œurs</w>
s u</w>
s que</w>
s ph
sph ère</w>
s pati
s onné</w>
s eaux</w>
s cui
scui ts</w>
s ant</w>
s ag
sag esse</w>
s aches</w>
rê ves</w>
rê ve</w>
rê v
rév é
rév eille</w>
réu ssi
rési stance</w>
rési denti
rép étition</w>
régu lièrement</w>
récol te</w>
ré pu
ré pa
répa re</w>
ré monie</w>
ré fu
ré cl
récl am
ré c
réc emment</w>
ridicu li
ri que</w>
ri ne</w>
ri n</w>
ri es</w>
ri el</w>
retour n
ret ar
respons abilité</w>
rentr ée</w>
rentr é</w>
rencontr ons</w>
ren voy
ren om
rempl i</w>
rem on
remon ter</w>
reli gi
regr ette</w>
regard ant</w>
regar des</w>
regar da</w>
refus é</w>
refu se</w>
re ç
re viendra</w>
re v
re trouvé</w>
re qui
re qu
re prendre</w>
re passer</w>
re jet
re gis
re cherch
rapp elles</w>
rap porte</w>
ran g</w>
ram assé</w>
rac le</w>
ra blement</w>
r ur
r ues</w>
r oi</w>
r il</w>
r erais</w>
r emi
remi se</w>
r av
rav i</w>
r at
r ass
r as</w>
r ang
r ami
r al
r aient</w>
quotidi enne</w>
quotidi en</w>
quar ante</w>
qua siment</w>
qu ées</w>
qu ez</w>
qu arti
quarti er</w>
q u</w>
pê che</w>
péri ode</w>
pénétr er</w>
pé trole</w>
py rami
publi é</w>
publi cité</w>
pu tain</w>
pu re</w>
présent é</w>
prés ente</w>
préf ères</w>
préci eux</w>
pré voyez</w>
pré visions</w>
pré venue</w>
pré occu
préoccu pa
pré hen
pru dents</w>
prouv er</w>
promen er</w>
promen ade</w>
prom is</w>
proj ets</w>
profes sionnel</w>
pro fi
pri rent</w>
pri mé</w>
preu ves</w>
pres se</w>
prend rais</w>
pren ne</w>
premi ers</w>
prati quement</w>
prati que</w>
pouv aient</w>
pouss é</w>
pouss er</w>
pou sse</w>
pou p
portu nité</w>
por tez</w>
por terai</w>
pon du</w>
pon aises</w>
poin ts</w>
poi son</w>
po ète</w>
po t</w>
po ni
po ign
poign ée</w>
pleur ait</w>
plain tes</w>
pla fond</w>
pl om
pl eine</w>
pizz a</w>
pi geons</w>
ph e</w>
personn el</w>
pers évérance</w>
per suader</w>
per d</w>
pend ante</w>
pen sées</w>
pen sait</w>
pein dre</w>
pau vreté</w>
pau vres</w>
pati s</w>
pat hi
pass age</w>
pass a</w>
particu lièrement</w>
parti s</w>
parti ra</w>
par te</w>
par liez</w>
par ess
par eil</w>
par donn
pan talon</w>
pa l
pa cifi
p éril</w>
p èse</w>
p n
pn eu</w>
p er</w>
oï ne</w>
ouver tes</w>
ouv re</w>
oubli er</w>
ou ette</w>
ori té</w>
org ani
opér ation</w>
op tions</w>
op portunité</w>
onn aie</w>
ond ance</w>
om ique</w>
om b</w>
ol og
oi g
oig t</w>
ogr ap
occup ées</w>
oc k</w>
oblig ée</w>
ob jet</w>
ob e</w>
o te</w>
o sse</w>
o pi
o lé</w>
o k</w>
o ffi
o bi
nu méri
nu ages</w>
nouv eaux</w>
nor ma
nat ur
n és</w>
n oire</w>
n et</w>
n avi
n ations</w>
n ant</w>
n a
météorolo giques</w>
mét h
mé d
méd aille</w>
my st
mouv ement</w>
mour ut</w>
mot eur</w>
mor te</w>
montr ent</w>
mondi ale</w>
mondi al</w>
mon ter</w>
mo quer</w>
mo der
min uit</w>
min imum</w>
milli ers</w>
mi té</w>
mi séri
mi rent</w>
mi racle</w>
mi f
mif ère</w>
mi el</w>
mi e</w>
mi cr
met tr
mer de</w>
maî tri
mati née</w>
mat éri
mat h
math s</w>
mat ch</w>
mari ée</w>
manqu ez</w>
manqu ent</w>
manqu ait</w>
mani f
manif es
mang ez</w>
mang ent</w>
man uel</w>
man qué</w>
man ques</w>
man d
mam mifère</w>
maladi es</w>
mai sons</w>
magni fi
ma ître</w>
ma t</w>
ma n</w>
m és</w>
m ène</w>
m ons</w>
m onnaie</w>
m eur
m embre</w>
m ec</w>
lég er</w>
lu sions</w>
long ue</w>
lo ge</w>
li tres</w>
li mi
li en</w>
li ber
liber té</w>
lav e</w>
lang age</w>
l une</w>
l oyer</w>
l ente</w>
l em
lem an</w>
l ati
lati n</w>
l ard</w>
l api
l ap
lap ins</w>
kil om
k i
ju pe</w>
ju ge</w>
jou eurs</w>
join dre</w>
jet er</w>
jet a</w>
jal oux</w>
j ure</w>
j au
is me</w>
ir ez</w>
invi tée</w>
inven tion</w>
intéress és</w>
intér esse</w>
inter nationale</w>
intellig ents</w>
instruc tions</w>
infor mations</w>
inf lu
indi que</w>
in timi
in time</w>
in st
in si
in er</w>
in d
ind ustri
in clu
in cen
incen di
in ce</w>
in calcul
incalcul able</w>
imagin ation</w>
im patient</w>
ili tés</w>
il l</w>
idé es</w>
idi ote</w>
i vre</w>
i tali
i t</w>
i b
hér oïne</w>
hypo thèse</w>
hum ili
hu ètes</w>
hu mains</w>
hist oires</w>
heur té</w>
hau te</w>
habitu er</w>
habitu ellement</w>
habi tait</w>
hab ill
ha ï
h éri
h er
h ari
géni es</w>
gé ante</w>
guer rier</w>
gu ère</w>
gu eu
gueu le</w>
gran di</w>
gni t</w>
gla ce</w>
genti lle</w>
gent leman</w>
gar dé</w>
gar der
garder ai</w>
g ê
g érie</w>
g ée</w>
g re</w>
g le</w>
g er
g ement</w>
g el
fu ton</w>
fréqu ent
fronti ère</w>
frapp é</w>
frapp e</w>
frapp a</w>
fran ç
fr uit</w>
fourni t</w>
fourni r</w>
for mu
for c
fonctionn é</w>
fin an
fi ère</w>
fi le</w>
fi ces</w>
fi an
fi able</w>
ffi ca
ffica ce</w>
fau sse</w>
fatigu ée</w>
fac ture</w>
f ûmes</w>
f ê
f élici
f âché</w>
f our</w>
f erions</w>
f asses</w>
f allu
fallu t</w>
extr êmement</w>
expli cation</w>
exi gé</w>
exemp le</w>
excu ser</w>
ex pres
ex ion</w>
ex e</w>
ex cès</w>
eur opéenne</w>
essay ez</w>
essay a</w>
ess enti
ess ai
es ca
er ont</w>
entret enir</w>
entr aî
entr a
entra îner</w>
entou rs</w>
enti ère</w>
enti t</w>
ent é</w>
enseign é</w>
ennu yeux</w>
endom mag
en visage</w>
en vis
en vers</w>
en verrai</w>
en va
en regis
en lève</w>
en ez</w>
en courag
en ce
en c
emprun te</w>
empl oyer</w>
em mène</w>
effray é</w>
e ût</w>
e ons</w>
e iller</w>
e fficace</w>
e ant</w>
détermin ation</w>
dési re</w>
dés as
dépê ché</w>
déli cieux</w>
déjeu né</w>
déf i</w>
décé dé</w>
déclar é</w>
déc ouverte</w>
déb arrass
dé s</w>
dé pêcher</w>
dé pourvu</w>
dé pensé</w>
dé passer</w>
dé nu
dé l
dé es</w>
dé cor
dé con
décon ne</w>
dé chi
dé bu
dr ôle</w>
dou tes</w>
dou c
dor s</w>
dor ment</w>
dom aine</w>
dist ance</w>
dispu ter</w>
dispos i
dispos es</w>
dispos ent</w>
dispos ais</w>
dispar u</w>
discu té</w>
dis poni
din gue</w>
différ ente</w>
difficul té</w>
diffi ciles</w>
diff ère</w>
di ss
di rent</w>
di r</w>
di gne</w>
di ez</w>
di eu</w>
di ag
devin er</w>
dev ais</w>
dess ert</w>
des tin</w>
derni ères</w>
denti ste</w>
de venue</w>
de dans</w>
d ès</w>
d ra
d oigt</w>
d ette</w>
d ent
cé rémonie</w>
cuisin ière</w>
cuisin ier</w>
cu r
cu l</w>
cu e</w>
cré é</w>
cré dit</w>
cri tiques</w>
cri t</w>
cri min
cray on</w>
cr ème</w>
cr aign
courag eux</w>
cour te</w>
cour se</w>
coup s</w>
coup a</w>
cou le</w>
cou ché</w>
cor des</w>
copi es</w>
convainc u</w>
contr aire</w>
continu é</w>
continu er</w>
constr uit</w>
constr uction</w>
const amment</w>
conse ille</w>
conse illa</w>
consci ent</w>
connaiss ent</w>
conna îtr
conn us</w>
conn ait</w>
confi s
concer ne</w>
con vient</w>
con tient</w>
con séquences</w>
con som
con cl
concl u</w>
compli qué</w>
compa gn
comp ét
comment aires</w>
comment aire</w>
commen ç
commen c
com prennent</w>
com patis</w>
com b
colli ne</w>
co ffre</w>
cl o
citoy ens</w>
circonst ances</w>
ci seaux</w>
ci eusement</w>
ci ens</w>
choi si</w>
cho c</w>
chin oise</w>
chi rur
cherch ait</w>
chauss ettes</w>
chang ements</w>
cham bres</w>
ch â
ch ouette</w>
ch ant</w>
ch aise</w>
cer veau</w>
cep tion</w>
cass ée</w>
cam ion</w>
ca les</w>
ca cher</w>
c ouvert</w>
c on</w>
c o</w>
c k</w>
c is</w>
c es
c ath
c at
c aca
caca huètes</w>
bri tanni
bri l
br onz
bout eilles</w>
bou tique</w>
bou che</w>
bor d</w>
bl i</w>
biz arr
bizarr ement</w>
bi scuits</w>
ban de</w>
bag ages</w>
ba r</w>
b û
b éné
b oivent</w>
b el</w>
b e
b ass
avan cé</w>
av ril</w>
av ou
av eu
autori té</w>
autori sé</w>
autom obi
aur ez</w>
aur a</w>
au près</w>
au l</w>
attrap er</w>
atti rer</w>
atta qués</w>
ati ves</w>
ati e</w>
ath l
at ri
at omique</w>
assu re</w>
assi se</w>
ass is
as surer</w>
as pec
as k
arti fi
arrê tée</w>
arrog ants</w>
arriv és</w>
arriv erait</w>
arriv ait</w>
arr ose</w>
ari té</w>
archi tecte</w>
ar aign
araign ée</w>
ar ab
appréci ent</w>
appel ons</w>
appar u</w>
appar tement</w>
appar ence</w>
ap proche</w>
ap porter</w>
annu lée</w>
anc y</w>
an ak
amélior é</w>
amus ante</w>
ami tié</w>
ambi tion</w>
am éric
am me</w>
am en
am bul
allu mer</w>
all ées</w>
al tern
al ph
al entours</w>
aiss er</w>
aim ons</w>
aim erions</w>
aim aient</w>
ail les</w>
aider a</w>
ai rement</w>
ai mais</w>
ai des</w>
affi r
ador ent</w>
ador able</w>
addi tion</w>
ad op
ad ap
ad a</w>
actu ellement</w>
actu elle</w>
acti vité</w>
ach è
accep té</w>
ac tion</w>
ac qui
ac cent</w>
absur de</w>
ab sent</w>
ab ondance</w>
ab eilles</w>
a z
a les</w>
a ce</w>
V er
Uni es</w>
T u
S usan</w>
S MS</w>
Per mettez</w>
Par donnez</w>
P i
P aul</w>
N ations</w>
N ancy</w>
Mon sieur</w>
L avez</w>
L a</w>
K yoto</w>
J ac
H onn
G ar
Fran çais</w>
E n
Di able</w>
D égage</w>
D ébarr
Col omb</w>
Ch ri
Ch ar
Can ada</w>
C om
C essez</w>
C e</w>
B ou
B ill</w>
B ats</w>
Ap portez</w>
An ne</w>
Al gérie</w>
201 3</w>
19 8
19 7
1 4</w>
0 00</w>
û te</w>
ô tres</w>
ô ti</w>
ô ta</w>
ô ne</w>
ï e</w>
î n
în mes</w>
î le</w>
ê ts</w>
ê ti
ê t
êt eté</w>
ê pes</w>
ê le</w>
évè n
évèn ements</w>
évi d
évid ence</w>
év an
évan ou
étudi a</w>
étrang ères</w>
éti que</w>
éta bli</w>
ét éri
étéri a</w>
ét y
ét rin</w>
ét ou
étou ff
ét onné</w>
ét off
étoff e</w>
ét end
ét ei
ét ari
ét ab
éru dit</w>
éri r</w>
ér ée</w>
ér i</w>
ér euse</w>
ér ateur</w>
ér archi
éping le</w>
épi cé</w>
ép aiss
énor mé
énormé ment</w>
éni g
énig me</w>
én ue</w>
én avant</w>
élé ph
éloi gne</w>
élici tations</w>
éli cité</w>
électri cité</w>
élec tion</w>
éle vé</w>
ég ale</w>
écureu il</w>
écu ter</w>
écriv ain</w>
écri rai</w>
écra sé</w>
écra ser</w>
écou tais</w>
économi se</w>
échapp é</w>
éch ar
échar pe</w>
éch ange</w>
éch ang
éc ani
é va
é qu
é preuve</w>
é pau
é mo
é m
é lu
é lire</w>
é chan
échan till
è vement</w>
è tres</w>
è rerais</w>
è des</w>
è ches</w>
ç ues</w>
ç ant</w>
ç ailles</w>
â gé</w>
É tern
É g
É co
Éco ss
Écoss ais</w>
zon es</w>
z aine</w>
yth ag
ythag ore</w>
y p
y n
yn ami
ynami que</w>
y m
y ens</w>
y aux</w>
y ait</w>
y &apos;</w>
x ie</w>
we b</w>
w hi
whi sk
whisk y</w>
vê tement</w>
véri fi
vég étari
vr ait</w>
voy ante</w>
voy agent</w>
voy ag
volont aires</w>
voi es</w>
vo te</w>
vo que</w>
vo leurs</w>
viv ons</w>
viv ement</w>
visi té</w>
visi tera</w>
visi onn
vir er</w>
viol on</w>
vienn es</w>
viendr ait</w>
viend riez</w>
viend rais</w>
vieill ard</w>
vidé os</w>
victi me</w>
vi vions</w>
vi tre</w>
vi ré</w>
vi er</w>
vi er
vier ge</w>
vi eilles</w>
vi du</w>
veu ve</w>
veu ille</w>
verrou illé</w>
ver sé</w>
ver sion</w>
ver si
versi taire</w>
ver rons</w>
venge ance</w>
vend ent</w>
ven im
ven d</w>
ven ant</w>
van ter</w>
vali ses</w>
vali se</w>
vali de</w>
val able</w>
vaiss elle</w>
va che</w>
v ôtre</w>
v ul
vul g
vulg aire</w>
v ons</w>
v om
v este</w>
v ents</w>
v ends</w>
v embre</w>
v as
v ari
v ait</w>
v ain
utili sée</w>
utili sons</w>
ur veille</w>
ur qui
urqui e</w>
uni versitaire</w>
un auté</w>
ui sez</w>
ui es</w>
uc s</w>
u és</w>
u rine</w>
u ko</w>
u erre</w>
u er</w>
tu és</w>
tu yaux</w>
tu r
tu l
tu euse</w>
tu es</w>
tu e</w>
trouv ée</w>
trouv âmes</w>
trouv ons</w>
trouv es</w>
trouv a</w>
tromp ette</w>
trom peur</w>
tri ne</w>
tri co
tri ché</w>
tri cher</w>
trembl er</w>
trembl ements</w>
traver sé</w>
traver sons</w>
travaill ez</w>
travaill erai</w>
trans pire</w>
trans mets</w>
trai tez</w>
tra hi</w>
tr ône</w>
tr é</w>
tr é
tr ucs</w>
tr ei
trei ze</w>
tr ait</w>
tour né</w>
tour nez</w>
tour nent</w>
tou chez</w>
tot ale</w>
tomb ent</w>
tom a
toma c</w>
toil ettes</w>
tin ue</w>
tin s</w>
tin guer</w>
tin g</w>
tim bre</w>
ti vement</w>
ti ré</w>
ti ra</w>
ti r
ti née</w>
ti ls</w>
ti gre</w>
ti fs</w>
ti ez</w>
ti ers</w>
ti er</w>
ti ennes</w>
ti enne</w>
ti enn
tienn ent</w>
ther mo
tes ter</w>
tes tam
testam ent</w>
terri ble</w>
terr ain</w>
termin ée</w>
ter res</w>
ter mes</w>
ter ait</w>
tent ez</w>
ten ue</w>
ten ais</w>
tech no
techno lo
te rie</w>
tax is</w>
tax es</w>
tatou ages</w>
tap e</w>
tali sme</w>
tabl eaux</w>
t ère</w>
t onner</w>
t onn
tonn erre</w>
t em
t els</w>
t el
tel ettes</w>
t ardi
tardi f</w>
t aient</w>
t age</w>
sépar ées</w>
sépar ati
séparati stes</w>
séjour ner</w>
sé v
sé isme</w>
sé ance</w>
sym pathi
suspec t</w>
sus pi
suspi ci
sur vie</w>
sur venir</w>
sur veill
sur prendre</w>
sur plom
surplom b
sur nom</w>
sur face</w>
supplément aires</w>
sup érieur</w>
sup posé</w>
sup porte</w>
sup pli
suiv antes</w>
sui vit</w>
subi r</w>
su ni
su me</w>
su elle</w>
su e</w>
stu pé
sti ques</w>
sti ens</w>
stat ut</w>
st ol
stol et</w>
st oire</w>
st o
sto phe</w>
st ations</w>
st ade</w>
ssi onner</w>
spéci ali
spéci al</w>
spor tif</w>
spect ateurs</w>
spati al</w>
sour c
soup er</w>
soulag ement</w>
sou tient</w>
sou pi
sou lev
sou dure</w>
sou cis</w>
sor be</w>
son ges</w>
som p
som bres</w>
soli de</w>
sold at</w>
soi rées</w>
soi rs</w>
soi ent</w>
soci al</w>
so le
sk ier</w>
sin gu
sin ge</w>
si us</w>
si onné</w>
si gner</w>
servi ettes</w>
servi ces</w>
ser vé</w>
ser te</w>
ser rez</w>
ser aient</w>
senti t</w>
senti s</w>
sen tes</w>
sen si
secr étaire</w>
secr ète</w>
secon des</w>
secon daire</w>
secon d</w>
se rions</w>
se ins</w>
sci ences</w>
sauv ages</w>
sau va</w>
sau té</w>
sau ta</w>
satis faite</w>
saou l</w>
sandwi ch
sandwich s</w>
sak a</w>
sai sons</w>
sai sit</w>
sai si</w>
sai gne</w>
sac s</w>
sac ri
sacri fices</w>
s ér
s èches</w>
s tres</w>
s ter</w>
s ra
sra ël</w>
s co
s cin
s aviez</w>
s ap
sap er</w>
s ants</w>
s ang
sang lot
sanglot s</w>
s ance</w>
s am
sam e
same di</w>
s ain
sain te</w>
s Ap
sAp p</w>
rê ver</w>
révé la</w>
rév eiller</w>
réussi t</w>
réuss ira</w>
réuss ir</w>
résul tat</w>
résou dra</w>
résidenti elle</w>
rési ster</w>
rési dent</w>
rési de</w>
répon ses</w>
répar é</w>
répar ez</w>
répar ation</w>
répan dit</w>
rép éter</w>
régi me</w>
rég ler</w>
réfl exion</w>
réf rig
réfrig érateur</w>
rédui te</w>
rédui re</w>
réclam é</w>
réali sé</w>
ré vél
ré volution</w>
ré vo
ré server</w>
ré proch
ré ment</w>
ré el</w>
ré conc
réconc ili
ré com
ré cit</w>
ré chauff
ré able</w>
ru p
rou é</w>
ron d</w>
rom pu</w>
rom pre</w>
rob uste</w>
rob ot</w>
ro se</w>
rig o
rigo ler</w>
rig ez</w>
ridicu le</w>
ri tion</w>
ri gi
ri ge</w>
ri chi
retour ne</w>
reti ré</w>
reti rer</w>
retar dé</w>
ret enir</w>
respec té</w>
respec tent</w>
respec t</w>
res terai</w>
res pl
respl en
requ ête</w>
représent ant</w>
renom mée</w>
rend ait</w>
rencontr ées</w>
rencontr es</w>
rencontr a</w>
ren tres</w>
ren tre</w>
ren dit</w>
ren de</w>
ren c
renc ard</w>
rempl is</w>
remar qu
rem et
rem bour
rembour ser</w>
religi on</w>
rel ations</w>
rejoin s</w>
regr et</w>
regard ait</w>
regard ais</w>
refus er</w>
refus ait</w>
refu sa</w>
recherch ons</w>
rece voir</w>
re venus</w>
re traite</w>
re riez</w>
re proch
re pris</w>
re pose</w>
re pos</w>
re pos
re porter</w>
re ine</w>
re four</w>
re fl
re en</w>
re d</w>
re connais</w>
re cherches</w>
re cette</w>
ray ons</w>
rat é</w>
rang é</w>
ram en
rai sins</w>
rag ie</w>
racon té</w>
racon te</w>
rac ines</w>
ra tionnel</w>
ra re</w>
ra ce</w>
ra ble</w>
r ôti</w>
r y</w>
r ure</w>
r oy
roy ale</w>
r ock</w>
r mé</w>
r mu
rmu ra</w>
r h
r endrai</w>
r avi
quotidi enn
quotidienn ement</w>
quit tez</w>
quit ta</w>
qui de</w>
quel s</w>
qu érir</w>
qu illes</w>
qu illage</w>
qu anti
quanti té</w>
qu ant</w>
qu aient</w>
pyrami des</w>
pul sé</w>
puiss es</w>
puiss ante</w>
pui ts</w>
pui sque</w>
pu té</w>
pu ri
pu r</w>
pu ni
puni tion</w>
prési denti
prés ents</w>
prépar és</w>
prépar ées</w>
préoccupa tion</w>
préfér ence</w>
préf èrerais</w>
préci sément</w>
préci ses</w>
préci pi
pré voir</w>
pré somp
pré server</w>
pré cé
pré co
préco ce</w>
prud entes</w>
proxi mité</w>
proxi mati
prouv ez</w>
propri été</w>
propos a</w>
pronon ça</w>
pronon ci
prononci ation</w>
prom et</w>
progr ess
progress er</w>
progr amme</w>
profon dé
profondé ment</w>
profi ter</w>
profess eurs</w>
produi ra</w>
pro viennent</w>
pro pose</w>
pro pa
pro fit</w>
pro du
produ cti
producti fs</w>
pro cé
pro cher</w>
principa les</w>
principa lement</w>
pri sonn
pri me</w>
press ée</w>
press é</w>
prend riez</w>
pren nes</w>
pren ant</w>
prati quer</w>
pr être</w>
pr ein
pouss a</w>
pour suivre</w>
pour suivi</w>
pour rions</w>
poup ées</w>
pou vions</w>
pou ssière</w>
pou l
poul et</w>
pou dre</w>
poss èdes</w>
pos ées</w>
pos ture</w>
pos eriez</w>
ponctu elle</w>
pon t</w>
poli cier</w>
pol lution</w>
pol lu
poin te</w>
poi trine</w>
po é
po èmes</w>
po il</w>
po ches</w>
plu riel</w>
pleur es</w>
pleu vra</w>
pleu ve</w>
pleu vait</w>
plan té</w>
plan ter</w>
plain te</w>
plain dre</w>
pla t</w>
pl é</w>
pl uies</w>
pl on
pl exe</w>
pl e
ple ins</w>
pl ats</w>
pl aire</w>
pl acé</w>
piè ge</w>
pian iste</w>
pi ég
pi tié</w>
pi t</w>
pi stolet</w>
pi rer</w>
pi ra
pi er
pier res</w>
phot o
ph ar
phar ma
personn ellement</w>
personn ages</w>
pers pec
per plexe</w>
per ons</w>
per mit</w>
per met</w>
per met
per dit</w>
per des</w>
pen sée</w>
pen cha</w>
pein tures</w>
pati ents</w>
pati ente</w>
pat tes</w>
pass és</w>
pass ons</w>
pass i
pass erai</w>
pass era</w>
pass ant</w>
partici pé</w>
parti es</w>
part ager</w>
part agent</w>
part age</w>
paro les</w>
parl erai</w>
paress eux</w>
para ît</w>
par venu</w>
par venir</w>
par v
par ten
par lais</w>
par i</w>
par fu
parfu m</w>
par faite</w>
par emment</w>
par eille</w>
par donné</w>
par donner</w>
par donne</w>
par cour
papi ers</w>
pap ill
pan ne</w>
pai x</w>
pai erai</w>
pacifi ques</w>
pa tri
pa st
pa rition</w>
pa cité</w>
p étrin</w>
p és</w>
p éni
p ée</w>
p tion</w>
p sy
p inte</w>
p il
pil ule</w>
p a</w>
oy ons</w>
oy eux</w>
oy en</w>
oy al</w>
ouv ris</w>
ouv ez</w>
our s</w>
ou tr
ou tils</w>
ou te</w>
ou t</w>
ou illes</w>
os ex
os cou</w>
os co
osco pe</w>
origin aire</w>
orig ine</w>
ori ent
orient ation</w>
or oute</w>
or donna</w>
or bi
orbi te</w>
or anges</w>
opér a</w>
opi n</w>
op érer</w>
op âtre</w>
op posé</w>
onn aire</w>
ong ée</w>
ong les</w>
ong ler</w>
on éreuse</w>
on ze</w>
on y</w>
on g</w>
on es</w>
on cer</w>
om e</w>
olog ie</w>
ol ym
ok oh
okoh ama</w>
oisi rs</w>
oin s</w>
oi ts</w>
ograp h
ograph e</w>
og le</w>
offen ser</w>
off re</w>
off ert</w>
oblig ations</w>
obli gé</w>
objec tion</w>
ob é
ob tient</w>
ob tenir</w>
ob serve</w>
ob s
o ût</w>
o sité</w>
o p</w>
o ogle</w>
o di
o ci
nég oci
numéri que</w>
nu age</w>
nour rir</w>
not er</w>
norma le</w>
nor m
norm aux</w>
nor d</w>
nom s</w>
nom bres</w>
noi rs</w>
no vembre</w>
no tion</w>
no tes</w>
no sti
no le</w>
ni e</w>
ner veu
nei ger</w>
navi guer</w>
nat ation</w>
nag eant</w>
nag ea</w>
na ï
n ôtres</w>
n é
n ue</w>
n agent</w>
mê ler</w>
méth ode</w>
méri tons</w>
médicam ents</w>
médicam ent</w>
médeci ne</w>
mé prise</w>
mé pri
mé du
médu ses</w>
mè nent</w>
myst ère</w>
mu se</w>
mu rmura</w>
mu r</w>
mour raient</w>
mou l
mou che</w>
mou ch
mouch oir</w>
morce aux</w>
mor gue</w>
mor du</w>
montr é</w>
montr a</w>
mont ag
montag nes</w>
mon té</w>
mon tez</w>
moder ne</w>
mo s
mo que</w>
mo cr
miséri corde</w>
min eur</w>
min es</w>
milli onnaire</w>
milli ards</w>
mili eu</w>
mign onnes</w>
micr oscope</w>
mi ssionner</w>
mi ons</w>
mi ens</w>
meur tre</w>
met tais</w>
mes ures</w>
merveill euse</w>
mer dé</w>
men songes</w>
men acé</w>
meill eurs</w>
meill eur
meilleur es</w>
mau ves</w>
mat ern
matern elle</w>
marr ant</w>
march ant</w>
mar chan
manifes tation</w>
mani té</w>
mang es</w>
mang eons</w>
mand at</w>
man uelle</w>
mal sain</w>
mal ins</w>
mal heur</w>
mal entendu</w>
mal ad
malad r
magnifi que</w>
magaz ines</w>
mag as
ma r</w>
ma quillage</w>
ma ligne</w>
ma li
ma chi
machi ne</w>
ma ble</w>
m écani
m us
m ente</w>
m e
m bar
mbar de</w>
m aire</w>
m ail
m ai</w>
lé opâtre</w>
lè vres</w>
lun dis</w>
lumi ères</w>
lu sion</w>
lour ds</w>
lour de</w>
lou pé</w>
lou p</w>
lou er</w>
logi que</w>
lo gue</w>
lo cales</w>
limi te</w>
li ère</w>
li ts</w>
li sez</w>
li quide</w>
li on</w>
li chée</w>
li br
li b
lev ée</w>
lev ez</w>
le va</w>
lav és</w>
lav age</w>
lar me</w>
lar gement</w>
lapi n</w>
lan d
land aise</w>
lan cé</w>
laiss es</w>
laiss a</w>
lai tiers</w>
lai ne</w>
lai de</w>
labor at
laborat oire</w>
l ou</w>
l oisirs</w>
l les</w>
l ing
l end
lend em
lendem ain</w>
l ab
kilom ètres</w>
kil os</w>
k son</w>
k e</w>
k e
k ag
jug ez</w>
jug ement</w>
jour n
jou euses</w>
jou et</w>
jou ant</w>
jou ais</w>
jet ez</w>
jau ne</w>
ja ponaises</w>
j uin</w>
j oyeux</w>
j ongler</w>
j oi
itali en</w>
is ée</w>
is sue</w>
ir réproch
ir régu
invent er</w>
inv in
invin cible</w>
intéress ées</w>
intéress ée</w>
intéress ez</w>
intéress ent</w>
intéress ante</w>
intér êts</w>
intimi dée</w>
inter net</w>
intellig ence</w>
int éri
institu trice</w>
ini té</w>
ini ti
infor mer</w>
infor matique</w>
indé pendante</w>
indi vidu</w>
incendi e</w>
in ée</w>
in verse</w>
in utile</w>
in tro
in spiration</w>
in s
in différent</w>
in croy
in cor
incor rigi
in connue</w>
in connu</w>
in cl
incl ina</w>
impressionn ée</w>
impres sionné</w>
import ance</w>
immédi at</w>
imagin é</w>
im pul
im primé</w>
im poli</w>
im p
im mor
im bé
imbé cile</w>
illi r</w>
ill égal</w>
ill ard</w>
ill ade</w>
il lie</w>
il i</w>
ignor ance</w>
ignor ait</w>
ignor ais</w>
ignor a</w>
identi fication</w>
ib érez</w>
i ème</w>
i rais</w>
i ff
iff el</w>
i ers</w>
héri tage</w>
hé site</w>
hé si
hur le</w>
humili ée</w>
hu manité</w>
hor loge</w>
hor aire</w>
honn êteté</w>
hon or
hon gr
hom osex
hi érarchi
hi te</w>
her be</w>
hau tement</w>
hari cot
haricot s</w>
habitu des</w>
habi les</w>
hab ille</w>
h ou
h is</w>
h at
hat sApp</w>
h an
gê né</w>
géni al</w>
gé ants</w>
gâ teaux</w>
gui mbarde</w>
gui mauves</w>
gui de</w>
guer res</w>
gu éri</w>
gu éri
gu re</w>
gu eux</w>
gro ssi
gro sses</w>
grat uit</w>
gr on
gr aines</w>
gout telettes</w>
go ût</w>
gni rent</w>
gn é</w>
gliss é</w>
gliss a</w>
gl oire</w>
gl as</w>
gi t</w>
gi que</w>
gi g
ge a</w>
gasp iller</w>
gar é</w>
gar er</w>
gar dons</w>
gar des</w>
gag é</w>
g és</w>
g éri
g ér
g ène</w>
g rés</w>
g al
gal a
gala xie</w>
félici ter</w>
fus illade</w>
fus il</w>
fu sion</w>
fu mée</w>
fri tes</w>
fri que</w>
frapp ée</w>
frapp er</w>
franç aise</w>
fr ont</w>
four ch
fou tu</w>
fou tre</w>
fou t</w>
fou illa</w>
formu laire</w>
forc ez</w>
for tes</w>
for mez</w>
for cée</w>
for cé
forcé ment</w>
for ces</w>
fon dé</w>
fon dit</w>
fon dement</w>
fon d
fon cé</w>
fon ction</w>
fo ssi
fix e</w>
finan cier</w>
fin s</w>
fil é</w>
fian çailles</w>
fi ée</w>
fi èvre</w>
fi gure</w>
fi ers</w>
fi che</w>
feu ille</w>
fer ven
fer ont</w>
fer més</w>
fer mée</w>
fer ait</w>
fen se</w>
favor i</w>
favor able</w>
fau ts</w>
fau dra</w>
famili er</w>
fai siez</w>
fai né
fai lle</w>
fai bles</w>
fa ciles</w>
f êtes</w>
f élicité</w>
f lu
f li
f is</w>
f fr
f forcez</w>
f ec
f assi
fassi ez</w>
f ar
f ab
expéri ment
expri mer</w>
expres sions</w>
exploi tées</w>
explo sion</w>
explo ser</w>
expliqu erai</w>
expliqu a</w>
exis ter</w>
exi st
exi ge</w>
excu sé</w>
excu se</w>
excel lent</w>
exam iner</w>
exac tes</w>
exac te</w>
ex écuter</w>
ex ténu
ex pi
ex er
ex empl
ex cl
ex ci
ex ag
eur ent</w>
et er</w>
essenti elle</w>
essay e</w>
essai m</w>
ess ence</w>
espér ons</w>
esca lier</w>
es té</w>
es tomac</w>
es table</w>
es que</w>
es pi
er nité</w>
er ez</w>
er chez</w>
er ce</w>
enva hi</w>
entraî ne</w>
entr és</w>
entr ées</w>
entr es</w>
enti èrement</w>
entend us</w>
ent ées</w>
ent endez</w>
ent en
enten dit</w>
enregis tré</w>
ennuy er</w>
ennuy ais</w>
enn a
enna d</w>
eng rais</w>
eng ager</w>
enf uir</w>
endr oits</w>
endor mir</w>
endor mie</w>
endommag ée</w>
end urer</w>
ence inte</w>
enc re</w>
en voie</w>
en ver
en u</w>
en suite</w>
en sole
en rag
en gag
en cour
emprun té</w>
employ és</w>
employ é</w>
empl oie</w>
embrass é</w>
embr asse</w>
embarrass ée</w>
em prein
em mener</w>
em bl
el sius</w>
el ine</w>
el er</w>
el en</w>
effec tuer</w>
eff acer</w>
ef fort</w>
ef force</w>
ec tée</w>
e yez</w>
e pendant</w>
e h</w>
e ants</w>
e ables</w>
détr uire</w>
détermin ée</w>
détermin é</w>
dét on
dési rez</w>
désas tre</w>
dér ang
dénu é</w>
démé nager</w>
déli cieusement</w>
déli ca
décé dée</w>
décl ina</w>
décl en
déc ès</w>
déc ouv
débu tants</w>
débarrass er</w>
déb at</w>
dé çues</w>
dé veloppé</w>
dé sir</w>
dé serte</w>
dé rou
dé puté</w>
dé préci
dé pou
dé pit</w>
dé penser</w>
dé pense</w>
dé passé</w>
dé n
dé mocr
dé missionner</w>
dé marr
dé gr
dé gagé</w>
dé g
dé fini</w>
dé fin
dé filé</w>
dé fie</w>
dé fi
dé fense</w>
dé fauts</w>
dé faite</w>
dé courag
dé col
dé ce
du rent</w>
du c
duc teur</w>
dr og
dr ap
drap eaux</w>
douc ement</w>
dou lour
dou ille</w>
dot ée</w>
dorm ant</w>
dor énavant</w>
dor mis</w>
donn eurs</w>
donn erai</w>
do cu
divor cer</w>
dispu tent</w>
dispu te</w>
dispos er</w>
disponi ble</w>
dispar aiss
disparaiss ent</w>
dis tinguer</w>
dirig ea</w>
direc tement</w>
diplom ate</w>
dipl ôme</w>
différ entes</w>
diag nosti
di vers</w>
di tés</w>
di te</w>
di riez</w>
di rais</w>
di que</w>
di c
di amant</w>
di al
dial ecte</w>
devr a</w>
devin é</w>
devin rent</w>
devin ette</w>
dess ous</w>
dess ins</w>
desc end
des tinée</w>
des sin</w>
derni èrement</w>
derni ers</w>
der ons</w>
demand ais</w>
dem ment</w>
dem ie</w>
dem eurent</w>
de vions</w>
de viennent</w>
de grés</w>
dan sé</w>
dan sa</w>
d ynamique</w>
d og
d eur</w>
d ente</w>
d en
d ame</w>
cô tés</w>
curi osité</w>
curi eux</w>
cul tures</w>
cui r</w>
cu ler</w>
cré tin</w>
cré er</w>
cré di
croy ons</w>
croy able</w>
croi rez</w>
cro che</w>
craign ez</w>
cr ée</w>
cr uel</w>
cr u
cr o</w>
cr ains</w>
coû tera</w>
couver tures</w>
cour ses</w>
coup ent</w>
cou sine</w>
cou sin</w>
cou r</w>
corrig é</w>
correspond ant</w>
correspond ait</w>
correc t</w>
convainc us</w>
convainc re</w>
contribu er</w>
contrari é</w>
contr ain
contac ter</w>
constr uite</w>
constr uire</w>
consom mation</w>
considér ée</w>
considér er</w>
considé ré</w>
considé rablement</w>
connaiss ons</w>
confis qué</w>
confi rmé</w>
confi ant</w>
confec tionné</w>
confec tionn
condui te</w>
condi tionné</w>
concer nant</w>
conc lusions</w>
con tenu</w>
con serv
con fron
con ducteur</w>
compos ée</w>
compos ants</w>
compli quée</w>
compl éter</w>
compagn ons</w>
communi sme</w>
comman dé</w>
comm unauté</w>
comm ettre</w>
comm erci
comm erce</w>
comb us
com préhen
com prendrais</w>
com prendrai</w>
com prend</w>
com portent</w>
com par
col lè
col labor
co p
clu b</w>
clo ch
cli mat</w>
cli mat
cli ents</w>
cli ent</w>
cl ose</w>
cl av
cl ari
cl a
ci e</w>
châ teau</w>
chu tes</w>
chu te</w>
chirur gie</w>
chi enne</w>
cherch eurs</w>
cherch ais</w>
cher ont</w>
cher a</w>
char me</w>
char gé</w>
char ger</w>
chang era</w>
chan d
ch œur</w>
ch éty
ch ées</w>
ch ère</w>
ch èque</w>
ch ré
ch oux</w>
ch at
ch aises</w>
cer cle</w>
cen tes</w>
ce au</w>
cath oli
cass er
car refour</w>
car di
capi talisme</w>
capi tale</w>
can ard</w>
cam bri
cam ara
camara des</w>
caf étéria</w>
ca tif</w>
ca pacité</w>
ca ché</w>
c â
c laire</w>
c ess
c arr
c ail
cail lou</w>
bé quilles</w>
bâ tard</w>
bu g</w>
brou illard</w>
bronz age</w>
britanni que</w>
bril ler</w>
bri sé</w>
bri lle</w>
br uns</w>
br un</w>
br osse</w>
bout onne</w>
bou illie</w>
bou cle</w>
bon bons</w>
bo l</w>
blon de</w>
blo quée</w>
blessu res</w>
blessu re</w>
blan cs</w>
bl eue</w>
bl ague</w>
bl ag
bien venue</w>
bi ens</w>
bes oins</w>
ber ceau</w>
be cue</w>
bat aille</w>
bar re</w>
bar becue</w>
bar be</w>
ban c</w>
ban anes</w>
ban ane</w>
bal ay
balay er</w>
bag ue</w>
bag nole</w>
ba sse</w>
b êti
b ég
b uiss
b rev
b om
b oite</w>
b oi
b in
b i</w>
b at</w>
b an</w>
b all
ball on</w>
b al</w>
b ain</w>
aî née</w>
az ak
ay uko</w>
avou er</w>
aveu gle</w>
av ie</w>
av er
autori sée</w>
autori sa</w>
automobi les</w>
aut oroute</w>
aur ont</w>
augment ent</w>
au quel</w>
atti tude</w>
atti ré</w>
attend ant</w>
atten tif</w>
atten te</w>
atta que</w>
att endrai</w>
att endez</w>
att ement</w>
att ar
ati ques</w>
ati f</w>
ath y</w>
assis ter</w>
assi t</w>
assi st
ass embl
ass ass
aspec t</w>
as te</w>
as pi
arti ste</w>
arti cles</w>
arrog ance</w>
arriv ées</w>
arriv ons</w>
arriv es</w>
arriv eras</w>
arriv era</w>
arriv a</w>
arab e</w>
ar mée</w>
ar mes</w>
ar chéty
ar c</w>
ar a</w>
appréci é</w>
appréci erais</w>
appréci era</w>
appréci er</w>
appli cation</w>
appell erai</w>
appell era</w>
appel lent</w>
appar entées</w>
aper çu</w>
aper ç
ap te</w>
ap proximati
ap prouve</w>
ap propri
ap proch
ap porterai</w>
ap pe
annon ce</w>
ang les</w>
anc êtres</w>
anak a</w>
an xi
an ta</w>
an ds</w>
an dra</w>
an douille</w>
an cien</w>
améric ain</w>
amélior ée</w>
amus é</w>
ambul ance</w>
am er</w>
am ateurs</w>
altern ative</w>
alph ab
alphab et</w>
all er
all ant</w>
ali stes</w>
ali ser</w>
ali bi</w>
al é</w>
al o
al li
al l</w>
al géri
al giques</w>
ajou tées</w>
ajou ter</w>
aiss ez</w>
ail leurs</w>
aider ai</w>
ai sée</w>
ai sance</w>
ai mable</w>
ai dés</w>
ai dée</w>
ai dé</w>
agressi vité</w>
agi ssait</w>
ag réable</w>
affir mer</w>
affi cher</w>
aff li
af fr
adoles cents</w>
adoles cent</w>
admi ré</w>
addi tionn
adap ter</w>
ad uisez</w>
ad ress
ad mets</w>
achè terais</w>
achet a</w>
accu sée</w>
accu ser</w>
accep table</w>
ac tive</w>
ac tions</w>
ac tif</w>
ac teur</w>
ac t</w>
ac quérir</w>
ac cro</w>
ac cro
ac compl
abs ente</w>
abs ence</w>
aban donne</w>
ab y
ab str
ab stiens</w>
ab sorbe</w>
ab ri</w>
ab attement</w>
a tes</w>
You Tu
YouTu be</w>
Y u
Y okohama</w>
W hite</w>
W hatsApp</w>
V oyons</w>
Uni on</w>
US B</w>
Tr ouvez</w>
Tr aduisez</w>
T urquie</w>
T ony</w>
T anaka</w>
S urveille</w>
S te
S ou
S e
S ach
S a
R es
R em
R I
Q u
P ythagore</w>
P résident</w>
P réparez</w>
P ro
P r
P o
P eter</w>
O u
O saka</w>
N ouv
Mi ke</w>
Mari a</w>
Mar s</w>
M y
M oyen</w>
M oscou</w>
M o
M me</w>
M ennad</w>
M ayuko</w>
M at
M an
M al
M ag
M ac
M a
L une</w>
L u
L ibérez</w>
K en</w>
Je anne</w>
Jac kson</w>
J ones</w>
J im
J av
Intern ation
In formez</w>
In croyable</w>
I to</w>
I sraël</w>
Honn i</w>
Hi stoire</w>
H en
H elen</w>
Gar dez</w>
G uerre</w>
G reen</w>
G oogle</w>
F élicitations</w>
E iffel</w>
E fforcez</w>
Débarr asse</w>
Dé pê
D ét
D is
Cor rigez</w>
Con tinue</w>
Con tinu
Con si
Chri stophe</w>
Char les</w>
Ch opin</w>
Ch ili</w>
Ch erchez</w>
Can adi
C léopâtre</w>
C ependant</w>
C elsius</w>
C ar
C aire</w>
B u
B ri
B ar
Ass eyez</w>
Ap paremment</w>
An k
Allem ands</w>
A ïe</w>
A muse</w>
A kag
A jou
A frique</w>
A c
6 0</w>
4 0</w>
4 000</w>
20 0
2 8</w>
1 8
1 5</w>
1 50</w>
1 2</w>
1 1</w>
